[PAD]
[UNK]
[CLS]
[MASK]
[SEP]
[unused0]
[unused1]
[unused2]
[unused3]
[unused4]
[unused5]
[unused6]
[unused7]
[unused8]
[unused9]
[unused10]
[unused11]
[unused12]
[unused13]
[unused14]
[unused15]
[unused16]
[unused17]
[unused18]
[unused19]
[unused20]
[unused21]
[unused22]
[unused23]
[unused24]
[unused25]
[unused26]
[unused27]
[unused28]
[unused29]
[unused30]
[unused31]
[unused32]
[unused33]
[unused34]
[unused35]
[unused36]
[unused37]
[unused38]
[unused39]
[unused40]
[unused41]
[unused42]
[unused43]
[unused44]
[unused45]
[unused46]
[unused47]
[unused48]
[unused49]
[unused50]
[unused51]
[unused52]
[unused53]
[unused54]
[unused55]
[unused56]
[unused57]
[unused58]
[unused59]
[unused60]
[unused61]
[unused62]
[unused63]
[unused64]
[unused65]
[unused66]
[unused67]
[unused68]
[unused69]
[unused70]
[unused71]
[unused72]
[unused73]
[unused74]
[unused75]
[unused76]
[unused77]
[unused78]
[unused79]
[unused80]
[unused81]
[unused82]
[unused83]
[unused84]
[unused85]
[unused86]
[unused87]
[unused88]
[unused89]
[unused90]
[unused91]
[unused92]
[unused93]
[unused94]
[unused95]
[unused96]
[unused97]
[unused98]
[unused99]
[unused100]
[unused101]
[unused102]
[unused103]
[unused104]
[unused105]
[unused106]
[unused107]
[unused108]
[unused109]
[unused110]
[unused111]
[unused112]
[unused113]
[unused114]
[unused115]
[unused116]
[unused117]
[unused118]
[unused119]
[unused120]
[unused121]
[unused122]
[unused123]
[unused124]
[unused125]
[unused126]
[unused127]
[unused128]
[unused129]
[unused130]
[unused131]
[unused132]
[unused133]
[unused134]
[unused135]
[unused136]
[unused137]
[unused138]
[unused139]
[unused140]
[unused141]
[unused142]
[unused143]
[unused144]
[unused145]
[unused146]
[unused147]
[unused148]
[unused149]
[unused150]
[unused151]
[unused152]
[unused153]
[unused154]
[unused155]
[unused156]
[unused157]
[unused158]
[unused159]
[unused160]
[unused161]
[unused162]
[unused163]
[unused164]
[unused165]
[unused166]
[unused167]
[unused168]
[unused169]
[unused170]
[unused171]
[unused172]
[unused173]
[unused174]
[unused175]
[unused176]
[unused177]
[unused178]
[unused179]
[unused180]
[unused181]
[unused182]
[unused183]
[unused184]
[unused185]
[unused186]
[unused187]
[unused188]
[unused189]
[unused190]
[unused191]
[unused192]
[unused193]
[unused194]
[unused195]
[unused196]
[unused197]
[unused198]
[unused199]
[unused200]
[unused201]
[unused202]
[unused203]
[unused204]
[unused205]
[unused206]
[unused207]
[unused208]
[unused209]
[unused210]
[unused211]
[unused212]
[unused213]
[unused214]
[unused215]
[unused216]
[unused217]
[unused218]
[unused219]
[unused220]
[unused221]
[unused222]
[unused223]
[unused224]
[unused225]
[unused226]
[unused227]
[unused228]
[unused229]
[unused230]
[unused231]
[unused232]
[unused233]
[unused234]
[unused235]
[unused236]
[unused237]
[unused238]
[unused239]
[unused240]
[unused241]
[unused242]
[unused243]
[unused244]
[unused245]
[unused246]
[unused247]
[unused248]
[unused249]
[unused250]
[unused251]
[unused252]
[unused253]
[unused254]
[unused255]
[unused256]
[unused257]
[unused258]
[unused259]
[unused260]
[unused261]
[unused262]
[unused263]
[unused264]
[unused265]
[unused266]
[unused267]
[unused268]
[unused269]
[unused270]
[unused271]
[unused272]
[unused273]
[unused274]
[unused275]
[unused276]
[unused277]
[unused278]
[unused279]
[unused280]
[unused281]
[unused282]
[unused283]
[unused284]
[unused285]
[unused286]
[unused287]
[unused288]
[unused289]
[unused290]
[unused291]
[unused292]
[unused293]
[unused294]
[unused295]
[unused296]
[unused297]
[unused298]
[unused299]
[unused300]
[unused301]
[unused302]
[unused303]
[unused304]
[unused305]
[unused306]
[unused307]
[unused308]
[unused309]
[unused310]
[unused311]
[unused312]
[unused313]
[unused314]
[unused315]
[unused316]
[unused317]
[unused318]
[unused319]
[unused320]
[unused321]
[unused322]
[unused323]
[unused324]
[unused325]
[unused326]
[unused327]
[unused328]
[unused329]
[unused330]
[unused331]
[unused332]
[unused333]
[unused334]
[unused335]
[unused336]
[unused337]
[unused338]
[unused339]
[unused340]
[unused341]
[unused342]
[unused343]
[unused344]
[unused345]
[unused346]
[unused347]
[unused348]
[unused349]
[unused350]
[unused351]
[unused352]
[unused353]
[unused354]
[unused355]
[unused356]
[unused357]
[unused358]
[unused359]
[unused360]
[unused361]
[unused362]
[unused363]
[unused364]
[unused365]
[unused366]
[unused367]
[unused368]
[unused369]
[unused370]
[unused371]
[unused372]
[unused373]
[unused374]
[unused375]
[unused376]
[unused377]
[unused378]
[unused379]
[unused380]
[unused381]
[unused382]
[unused383]
[unused384]
[unused385]
[unused386]
[unused387]
[unused388]
[unused389]
[unused390]
[unused391]
[unused392]
[unused393]
[unused394]
[unused395]
[unused396]
[unused397]
[unused398]
[unused399]
[unused400]
[unused401]
[unused402]
[unused403]
[unused404]
[unused405]
[unused406]
[unused407]
[unused408]
[unused409]
[unused410]
[unused411]
[unused412]
[unused413]
[unused414]
[unused415]
[unused416]
[unused417]
[unused418]
[unused419]
[unused420]
[unused421]
[unused422]
[unused423]
[unused424]
[unused425]
[unused426]
[unused427]
[unused428]
[unused429]
[unused430]
[unused431]
[unused432]
[unused433]
[unused434]
[unused435]
[unused436]
[unused437]
[unused438]
[unused439]
[unused440]
[unused441]
[unused442]
[unused443]
[unused444]
[unused445]
[unused446]
[unused447]
[unused448]
[unused449]
[unused450]
[unused451]
[unused452]
[unused453]
[unused454]
[unused455]
[unused456]
[unused457]
[unused458]
[unused459]
[unused460]
[unused461]
[unused462]
[unused463]
[unused464]
[unused465]
[unused466]
[unused467]
[unused468]
[unused469]
[unused470]
[unused471]
[unused472]
[unused473]
[unused474]
[unused475]
[unused476]
[unused477]
[unused478]
[unused479]
[unused480]
[unused481]
[unused482]
[unused483]
[unused484]
[unused485]
[unused486]
[unused487]
[unused488]
[unused489]
[unused490]
[unused491]
[unused492]
[unused493]
[unused494]
[unused495]
[unused496]
[unused497]
[unused498]
[unused499]
[unused500]
[unused501]
[unused502]
[unused503]
[unused504]
[unused505]
[unused506]
[unused507]
[unused508]
[unused509]
[unused510]
[unused511]
[unused512]
[unused513]
[unused514]
[unused515]
[unused516]
[unused517]
[unused518]
[unused519]
[unused520]
[unused521]
[unused522]
[unused523]
[unused524]
[unused525]
[unused526]
[unused527]
[unused528]
[unused529]
[unused530]
[unused531]
[unused532]
[unused533]
[unused534]
[unused535]
[unused536]
[unused537]
[unused538]
[unused539]
[unused540]
[unused541]
[unused542]
[unused543]
[unused544]
[unused545]
[unused546]
[unused547]
[unused548]
[unused549]
[unused550]
[unused551]
[unused552]
[unused553]
[unused554]
[unused555]
[unused556]
[unused557]
[unused558]
[unused559]
[unused560]
[unused561]
[unused562]
[unused563]
[unused564]
[unused565]
[unused566]
[unused567]
[unused568]
[unused569]
[unused570]
[unused571]
[unused572]
[unused573]
[unused574]
[unused575]
[unused576]
[unused577]
[unused578]
[unused579]
[unused580]
[unused581]
[unused582]
[unused583]
[unused584]
[unused585]
[unused586]
[unused587]
[unused588]
[unused589]
[unused590]
[unused591]
[unused592]
[unused593]
[unused594]
[unused595]
[unused596]
[unused597]
[unused598]
[unused599]
[unused600]
[unused601]
[unused602]
[unused603]
[unused604]
[unused605]
[unused606]
[unused607]
[unused608]
[unused609]
[unused610]
[unused611]
[unused612]
[unused613]
[unused614]
[unused615]
[unused616]
[unused617]
[unused618]
[unused619]
[unused620]
[unused621]
[unused622]
[unused623]
[unused624]
[unused625]
[unused626]
[unused627]
[unused628]
[unused629]
[unused630]
[unused631]
[unused632]
[unused633]
[unused634]
[unused635]
[unused636]
[unused637]
[unused638]
[unused639]
[unused640]
[unused641]
[unused642]
[unused643]
[unused644]
[unused645]
[unused646]
[unused647]
[unused648]
[unused649]
[unused650]
[unused651]
[unused652]
[unused653]
[unused654]
[unused655]
[unused656]
[unused657]
[unused658]
[unused659]
[unused660]
[unused661]
[unused662]
[unused663]
[unused664]
[unused665]
[unused666]
[unused667]
[unused668]
[unused669]
[unused670]
[unused671]
[unused672]
[unused673]
[unused674]
[unused675]
[unused676]
[unused677]
[unused678]
[unused679]
[unused680]
[unused681]
[unused682]
[unused683]
[unused684]
[unused685]
[unused686]
[unused687]
[unused688]
[unused689]
[unused690]
[unused691]
[unused692]
[unused693]
[unused694]
[unused695]
[unused696]
[unused697]
[unused698]
[unused699]
[unused700]
[unused701]
[unused702]
[unused703]
[unused704]
[unused705]
[unused706]
[unused707]
[unused708]
[unused709]
[unused710]
[unused711]
[unused712]
[unused713]
[unused714]
[unused715]
[unused716]
[unused717]
[unused718]
[unused719]
[unused720]
[unused721]
[unused722]
[unused723]
[unused724]
[unused725]
[unused726]
[unused727]
[unused728]
[unused729]
[unused730]
[unused731]
[unused732]
[unused733]
[unused734]
[unused735]
[unused736]
[unused737]
[unused738]
[unused739]
[unused740]
[unused741]
[unused742]
[unused743]
[unused744]
[unused745]
[unused746]
[unused747]
[unused748]
[unused749]
[unused750]
[unused751]
[unused752]
[unused753]
[unused754]
[unused755]
[unused756]
[unused757]
[unused758]
[unused759]
[unused760]
[unused761]
[unused762]
[unused763]
[unused764]
[unused765]
[unused766]
[unused767]
[unused768]
[unused769]
[unused770]
[unused771]
[unused772]
[unused773]
[unused774]
[unused775]
[unused776]
[unused777]
[unused778]
[unused779]
[unused780]
[unused781]
[unused782]
[unused783]
[unused784]
[unused785]
[unused786]
[unused787]
[unused788]
[unused789]
[unused790]
[unused791]
[unused792]
[unused793]
[unused794]
[unused795]
[unused796]
[unused797]
[unused798]
[unused799]
[unused800]
[unused801]
[unused802]
[unused803]
[unused804]
[unused805]
[unused806]
[unused807]
[unused808]
[unused809]
[unused810]
[unused811]
[unused812]
[unused813]
[unused814]
[unused815]
[unused816]
[unused817]
[unused818]
[unused819]
[unused820]
[unused821]
[unused822]
[unused823]
[unused824]
[unused825]
[unused826]
[unused827]
[unused828]
[unused829]
[unused830]
[unused831]
[unused832]
[unused833]
[unused834]
[unused835]
[unused836]
[unused837]
[unused838]
[unused839]
[unused840]
[unused841]
[unused842]
[unused843]
[unused844]
[unused845]
[unused846]
[unused847]
[unused848]
[unused849]
[unused850]
[unused851]
[unused852]
[unused853]
[unused854]
[unused855]
[unused856]
[unused857]
[unused858]
[unused859]
[unused860]
[unused861]
[unused862]
[unused863]
[unused864]
[unused865]
[unused866]
[unused867]
[unused868]
[unused869]
[unused870]
[unused871]
[unused872]
[unused873]
[unused874]
[unused875]
[unused876]
[unused877]
[unused878]
[unused879]
[unused880]
[unused881]
[unused882]
[unused883]
[unused884]
[unused885]
[unused886]
[unused887]
[unused888]
[unused889]
[unused890]
[unused891]
[unused892]
[unused893]
[unused894]
[unused895]
[unused896]
[unused897]
[unused898]
[unused899]
[unused900]
[unused901]
[unused902]
[unused903]
[unused904]
[unused905]
[unused906]
[unused907]
[unused908]
[unused909]
[unused910]
[unused911]
[unused912]
[unused913]
[unused914]
[unused915]
[unused916]
[unused917]
[unused918]
[unused919]
[unused920]
[unused921]
[unused922]
[unused923]
[unused924]
[unused925]
[unused926]
[unused927]
[unused928]
[unused929]
[unused930]
[unused931]
[unused932]
[unused933]
[unused934]
[unused935]
[unused936]
[unused937]
[unused938]
[unused939]
[unused940]
[unused941]
[unused942]
[unused943]
[unused944]
[unused945]
[unused946]
[unused947]
[unused948]
[unused949]
[unused950]
[unused951]
[unused952]
[unused953]
[unused954]
[unused955]
[unused956]
[unused957]
[unused958]
[unused959]
[unused960]
[unused961]
[unused962]
[unused963]
[unused964]
[unused965]
[unused966]
[unused967]
[unused968]
[unused969]
[unused970]
[unused971]
[unused972]
[unused973]
[unused974]
[unused975]
[unused976]
[unused977]
[unused978]
[unused979]
[unused980]
[unused981]
[unused982]
[unused983]
[unused984]
[unused985]
[unused986]
[unused987]
[unused988]
[unused989]
[unused990]
[unused991]
[unused992]
[unused993]
[unused994]
[unused995]
!
"
#
&
'
(
)
*
+
,
-
.
/
:
;
<
=
>
?
@
[
\
]
^
`
a
b
c
d
e
f
g
h
i
j
k
l
m
n
o
p
q
r
s
t
u
v
w
x
y
z
{
|
}
~
¡
¢
¤
¦
§
¨
©
ª
«
¬
®
¯
°
±
²
³
´
µ
·
¸
¹
º
»
¼
½
¾
×
ß
æ
ð
÷
ø
þ
đ
ħ
ı
ł
ŋ
œ
ƒ
ƣ
ƶ
ǀ
ǁ
ǃ
ǝ
ȷ
ɐ
ɑ
ɒ
ɔ
ɕ
ɘ
ə
ɚ
ɛ
ɜ
ɟ
ɡ
ɢ
ɣ
ɤ
ɥ
ɦ
ɨ
ɪ
ɬ
ɯ
ɰ
ɲ
ɳ
ɴ
ɵ
ɸ
ɹ
ɻ
ɾ
ʀ
ʁ
ʂ
ʃ
ʈ
ʉ
ʊ
ʋ
ʌ
ʎ
ʏ
ʑ
ʒ
ʔ
ʕ
ʘ
ʙ
ʝ
ʰ
ʱ
ʲ
ʷ
ʹ
ʺ
ʻ
ʽ
ʾ
ʿ
ˀ
˂
˃
˄
ˆ
ˇ
ˈ
ˉ
ˊ
ˌ
ˏ
ː
ˑ
˒
˓
˘
˚
˛
˝
ˢ
ˤ
ˮ
΄
α
β
γ
δ
ε
ζ
η
θ
ι
κ
λ
μ
ν
ξ
ο
π
ρ
ς
σ
τ
υ
φ
χ
ψ
ω
ϐ
ϑ
ϒ
ϕ
ϖ
ϥ
ϭ
ϵ
ϸ
а
б
в
г
д
е
ж
з
и
к
л
м
н
о
п
р
с
т
у
ф
х
ц
ч
ш
щ
ъ
ы
ь
э
ю
я
ђ
є
і
ј
љ
њ
ћ
џ
ѣ
ѧ
ѳ
ґ
ғ
җ
қ
ҡ
ң
ҥ
ү
ұ
ҳ
ҷ
һ
ӕ
ә
ө
ԑ
՞
ա
բ
գ
դ
ե
զ
է
ը
թ
ժ
ի
լ
խ
ծ
կ
հ
ձ
ղ
ճ
մ
յ
ն
շ
ո
չ
պ
ջ
ռ
ս
վ
տ
ր
ց
ւ
փ
ք
օ
ֆ
և
־
׀
א
ב
ג
ד
ה
ו
ז
ח
ט
י
ך
כ
ל
ם
מ
ן
נ
ס
ע
ף
פ
ץ
צ
ק
ר
ש
ת
װ
ײ
׳
،
؛
؟
ء
ا
ب
ة
ت
ث
ج
ح
خ
د
ذ
ر
ز
س
ش
ص
ض
ط
ظ
ع
غ
ؽ
ف
ق
ل
م
ن
ه
و
ى
ي
٠
١
٢
٣
٤
٥
٦
٧
٨
٩
٪
٫
٬
٭
ٮ
ٱ
ٲ
ٴ
ٵ
ٶ
ٷ
ٸ
ٹ
ٻ
ټ
پ
ځ
ڃ
څ
چ
ڈ
ډ
ڌ
ڍ
ڏ
ڑ
ړ
ڔ
ڕ
ږ
ژ
ښ
ڠ
ڤ
ک
ګ
ڬ
ڭ
گ
ڵ
ں
ڼ
ھ
ہ
ۃ
ۆ
ۇ
ۈ
ۉ
ۊ
ی
ۍ
ێ
ۏ
ې
ے
۔
ە
۞
ۥ
۩
ۮ
۰
۱
۲
۳
۴
۵
۶
۷
۸
۹
ܐ
ܒ
ܓ
ܕ
ܗ
ܘ
ܙ
ܚ
ܛ
ܝ
ܟ
ܠ
ܡ
ܢ
ܣ
ܤ
ܥ
ܦ
ܨ
ܩ
ܪ
ܫ
ܬ
ݐ
ݔ
ݖ
ݚ
ݝ
ݩ
ݸ
ބ
ކ
ލ
ޝ
ࢣ
ः
अ
आ
ई
उ
ए
ओ
क
ख
ग
ङ
च
छ
ज
झ
ञ
ट
ठ
ड
ढ
ण
त
थ
द
ध
न
प
फ
ब
भ
म
य
र
ल
ळ
व
श
ष
स
ह
ा
ि
ी
ॉ
ो
ौ
ॐ
।
ং
ঃ
অ
আ
ই
ঈ
উ
ঊ
এ
ও
ক
খ
গ
ঘ
ঙ
চ
ছ
জ
ঝ
ঞ
ট
ঠ
ড
ণ
ত
থ
দ
ধ
ন
প
ফ
ব
ভ
ম
য
র
ল
শ
ষ
স
হ
া
ি
ী
ে
০
১
২
৩
৪
৫
৬
৭
৮
৯
ਅ
ਆ
ਕ
ਖ
ਗ
ਘ
ਚ
ਜ
ਣ
ਤ
ਦ
ਧ
ਨ
ਪ
ਬ
ਭ
ਮ
ਰ
ਲ
ਵ
ਸ
ਹ
ਾ
ਿ
ੀ
અ
ઈ
ક
ગ
ચ
ણ
દ
ધ
ન
બ
ભ
મ
ર
શ
સ
હ
ા
ી
ો
ଡ
ଶ
ୀ
ஆ
க
ங
ச
ஜ
ட
த
ந
ன
ப
ம
ய
ல
ள
ழ
வ
ஷ
ா
ி
ு
ெ
ே
ை
ం
ఉ
క
గ
చ
జ
డ
ణ
త
ద
న
బ
మ
య
ర
ష
స
హ
ు
ూ
ృ
ಅ
ಗ
ಜ
ಟ
ಡ
ತ
ದ
ನ
ಪ
ಮ
ಯ
ರ
ಲ
ವ
ಸ
ಾ
ು
ೂ
ക
ട
ഥ
ദ
ന
പ
മ
യ
ല
ള
വ
ശ
ഷ
ാ
ി
ീ
െ
ග
ඝ
ම
ය
ර
ව
ස
හ
ා
ก
ข
ค
ง
จ
ช
ซ
ณ
ด
ต
ถ
ท
น
บ
ป
ผ
พ
ม
ย
ร
ฤ
ล
ว
ศ
ษ
ส
ห
อ
ะ
า
ำ
เ
แ
โ
ไ
ກ
ງ
ທ
ນ
ຫ
ະ
ໄ
་
།
ཀ
ག
ཏ
པ
བ
མ
འ
ར
ལ
က
င
ည
တ
ဒ
ဓ
န
ပ
ဘ
မ
ယ
ရ
လ
ာ
ေ
း
ြ
ა
ბ
გ
დ
ე
ვ
ზ
თ
ი
კ
ლ
მ
ნ
ო
პ
რ
ს
ტ
უ
ფ
ქ
ღ
ყ
შ
ც
ძ
წ
ჭ
ხ
ჯ
ስ
በ
ባ
አ
ዲ
ᐤ
ᐳ
ᐸ
ក
ច
ជ
ណ
ព
ម
រ
ា
ះ
ᴄ
ᴗ
ᴠ
ᴧ
ᵏ
ᵛ
ᵪ
ᵮ
ᵻ
ᶕ
ᶲ
᾿
‐
‑
‒
–
—
―
‖
†
‡
•
…
′
″
‴
‹
›
※
⁄
⁰
⁴
⁺
ⁿ
₁
₂
₃
₆
ₓ
₣
₤
₺
⃣
℃
℅
℉
ℓ
ℕ
№
ℝ
™
ℤ
℧
℩
℮
ℷ
⅓
⅙
⅚
⅛
ⅲ
←
↑
→
↓
↔
↗
↘
↝
↠
↦
↩
↵
⇄
⇌
⇐
⇒
⇔
∀
∂
∃
∅
∆
∇
∈
∊
∋
∎
∏
∑
−
∓
∕
∗
∘
∙
√
∝
∞
∟
∠
∥
∧
∨
∩
∪
∫
∶
≀
≅
≈
≘
≜
≝
≡
≤
≥
≧
≪
≫
⊂
⊆
⊇
⊕
⊗
⊞
⊢
⊤
⊥
⊨
⋅
⋆
⋊
⋋
⋯
⌈
⌉
⌊
⌋
⌘
⍋
⍳
⍺
⎯
⏘
␆
␕
##≤
##x
##ی
##ک
##و
##ا
##ر
##ه
##ت
##ل
##ن
##گ
##د
##ش
##م
##ب
##س
##ج
##ض
##ق
##چ
##ز
##پ
##i
##r
##a
##خ
##ف
##ع
##o
##n
##s
##e
##k
##v
##c
##ى
##ي
##h
##t
##l
##۷
##۳
##۸
##۱
##۶
##ط
##y
##b
##m
##ح
##u
##g
##۲
##۵
##۹
##ث
##۰
##d
##ژ
##p
##ظ
##ذ
##f
##۴
##и
##к
##о
##л
##а
##غ
##ء
##ة
##w
##ص
##ٴ
##z
##j
##в
##ю
##ە
##ल
##ा
##म
##β
##п
##р
##д
##у
##т
##ы
##q
##ь
##ګ
##ב
##ר
##י
##ф
##٧
##ր
##կ
##ո
##ւ
##ն
##ք
##б
##с
##я
##র
##ব
##ে
##ν
##θ
##ρ
##ω
##π
##ο
##ς
##ײ
##נ
##ע
##ם
##ა
##მ
##რ
##ი
##ێ
##↔
##ڃ
##ں
##ə
##α
##λ
##٣
##ۊ
##ш
##٥
##ι
##ξ
##ε
##σ
##τ
##υ
##κ
##η
##٩
##٤
##ı
##н
##м
##ږ
##®
##ך
##е
##°
##⊆
##щ
##١
##٠
##™
##¬
##і
##þ
##ט
##æ
##ು
##ಗ
##ಾ
##ದ
##χ
##٢
##ʷ
##ʰ
##٦
##ी
##य
##ж
##ц
##з
##φ
##ł
##א
##δ
##ʾ
##ۆ
##ڕ
##ד
##ל
##ה
##г
##ש
##מ
##ו
##ɑ
##٨
##²
##−
##ч
##ٶ
##μ
##×
##ग
##र
##ি
##ত
##ہ
##ן
##ҳ
##ھ
##ø
##³
##ძ
##γ
##ˤ
##ˈ
##ʕ
##ћ
##ब
##ि
##न
##˓
##ٵ
##΄
##∆
##ڵ
##ð
##ק
##э
##ː
##х
##œ
##₂
##≥
##क
##ष
##∈
##স
##ß
##া
##ষ
##ণ
##բ
##ա
##յ
##є
##ז
##ח
##৫
##৩
##ই
##ਧ
##ਿ
##ਆ
##ਣ
##ਾ
##ץ
##ג
##ٲ
##त
##ɪ
##ɛ
##ე
##კ
##ვ
##ლ
##ʃ
##ɬ
##ী
##⃣
##ह
##द
##ٹ
##ক
##צ
##ת
##ª
##ә
##∨
##ի
##դ
##∞
##ۏ
##ڈ
##ס
##ʊ
##ˮ
##ɐ
##న
##ర
##գ
##ս
##ե
##մ
##ܠ
##ध
##ζ
##श
##∧
##व
##स
##¯
##დ
##վ
##թ
##ნ
##ओ
##զ
##দ
##º
##ɔ
##∠
##כ
##ٸ
##ᴧ
##∂
##ʻ
##ґ
##∫
##হ
##ড
##য
##ল
##ন
##©
##ܐ
##ܬ
##ܘ
##ܪ
##ܝ
##÷
##ժ
##ს
##⋅
##∗
##ڑ
##±
##µ
##₃
##জ
##ঞ
##ɾ
##ʲ
##→
##շ
##ɵ
##ǝ
##∕
##ܫ
##ܦ
##ფ
##ხ
##ტ
##ყ
##ო
##տ
##ܕ
##´
##≡
##∇
##ফ
##ਜ
##ਬ
##ٱ
##ท
##ย
##ღ
##ҷ
##ј
##উ
##∊
##¹
##ʁ
##ړ
##څ
##ծ
##½
##ो
##თ
##ъ
##ধ
##פ
##ʿ
##ŋ
##ौ
##ٮ
##ݔ
##ܡ
##¨
##պ
##լ
##า
##ช
##¤
##ց
##ځ
##հ
##ǃ
##ϒ
##һ
##ম
##ɒ
##ټ
##ң
##˛
##ψ
##ղ
##ϕ
##ট
##ħ
##ʂ
##ɨ
##ᶕ
##≪
##চ
##ʹ
##ଡ
##ଶ
##ୀ
##ڼ
##≫
##प
##ܩ
##ڭ
##გ
##จ
##ݐ
##۩
##۞
##ஜ
##ज
##ռ
##រ
##ះ
##ា
##ជ
##ណ
##ច
##ក
##ម
##ព
##և
##প
##ɦ
##শ
##ზ
##ɡ
##∪
##ছ
##խ
##ө
##ʒ
##ғ
##њ
##≈
##ۍ
##ভ
##গ
##←
##น
##˝
##∑
##∋
##ؽ
##ђ
##đ
##थ
##փ
##ბ
##ջ
##⊇
##อ
##ง
##ป
##ร
##ɲ
##ɟ
##ʝ
##ү
##ɕ
##⎯
##ڌ
##⁄
##ར
##আ
##˄
##ঃ
##ϑ
##ϵ
##ף
##ಲ
##ತ
##ನ
##ະ
##қ
##ഥ
##ക
##ള
##ി
##ڤ
##√
##∘
##ঠ
##ܒ
##ܢ
##ۃ
##პ
##∅
##⇒
##ᵛ
##ɘ
##ٻ
##ရ
##ာ
##း
##च
##ห
##ม
##ұ
##↓
##⍳
##չ
##ʘ
##¦
##∙
##˚
##ও
##ˊ
##ܙ
##∩
##ய
##ா
##ம
##ள
##ன
##ѧ
##ख
##ʏ
##ˌ
##ก
##แ
##เ
##ผ
##ด
##ং
##⊕
##ड
##∶
##ʀ
##ॉ
##ʑ
##ˉ
##ܗ
##ښ
##₆
##ܨ
##থ
##খ
##ස
##ා
##ග
##ዲ
##ስ
##ਗ
##ਰ
##⇌
##ɣ
##င
##ဒ
##ေ
##က
##ြ
##ว
##ณ
##ℓ
##২
##৯
##৪
##ੀ
##ರ
##ವ
##უ
##ி
##ச
##ு
##வ
##ந
##த
##℃
##ट
##ण
##ݸ
##ۇ
##ᵏ
##ാ
##ന
##भ
##ⁿ
##შ
##ર
##મ
##ચ
##દ
##ெ
##ழ
##ப
##ˆ
##ਤ
##ည
##န
##ယ
##ਹ
##ਦ
##ం
##త
##స
##ద
##ਘ
##ѳ
##ˇ
##ಜ
##ಪ
##ई
##ঙ
##ܚ
##ܛ
##ృ
##ష
##ణ
##ے
##ळ
##ः
##ը
##ʎ
##လ
##ɹ
##ਨ
##ງ
##ໄ
##ຫ
##ນ
##ङ
##ډ
##യ
##മ
##ല
##బ
##ు
##မ
##˘
##ਲ
##ਸ
##ˢ
##¸
##တ
##ɜ
##₁
##წ
##ဓ
##װ
##ะ
##ศ
##ค
##ต
##හ
##ර
##ය
##ₓ
##บ
##↵
##డ
##ᵻ
##फ
##ܓ
##ส
##ˑ
##ۉ
##ҡ
##ો
##હ
##ન
##ા
##સ
##է
##¼
##ᴠ
##ഷ
##ദ
##വ
##ീ
##പ
##ކ
##ޝ
##ބ
##ข
##በ
##ባ
##ձ
##⁺
##గ
##০
##৭
##ǁ
##ქ
##ϸ
##ધ
##ી
##≅
##ञ
##⋋
##ճ
##ɳ
##ℷ
##ۈ
##ܤ
##ც
##ʱ
##બ
##ણ
##ూ
##ʋ
##⁴
##ܟ
##ڔ
##ℕ
##↘
##ढ
##৬
##జ
##య
##ਕ
##ษ
##ې
##ڬ
##ே
##ங
##க
##ʌ
##ಡ
##ਵ
##ঈ
##ˀ
##⁰
##ⅲ
##െ
##ട
##ٷ
##ભ
##ઈ
##ֆ
##ಮ
##ಯ
##ལ
##ݩ
##ᵪ
##ǀ
##ۮ
##ำ
##ล
##˃
##ை
##ಸ
##ೂ
##ݝ
##ݖ
##ไ
##ʔ
##≀
##˒
##འ
##ฤ
##ல
##ட
##ɚ
##छ
##झ
##ક
##શ
##ƒ
##ठ
##ܣ
##ۥ
##ܥ
##ان
##ای
##ار
در
##ست
##ین
به
##ند
از
##ود
می
##های
##ور
##ال
##اد
##ام
با
که
بر
این
را
##رد
##ید
است
##یر
ان
##ها
##اه
##ات
##لی
##ری
##اب
##شت
##ون
شد
##یم
##فت
هم
##ول
ام
##از
##وی
##سی
##وان
##رو
##اری
یک
کرد
برای
##انی
##یت
بود
##را
##خت
##ده
##تر
##گر
رو
##ارد
من
##مان
سال
مو
##لا
خود
تا
##تی
نی
##کن
میش
##اس
##اده
##زی
##رک
##ایی
##یل
##وم
کن
تو
##گی
##یش
مح
دا
او
کار
##زار
مع
ال
شده
##هر
فر
##یا
نم
اس
##بی
##ههای
##گاه
یا
##شد
ار
بی
دی
کش
میشود
##نگ
##اند
اف
##ورد
ایر
سر
##ادی
##انه
قر
خو
دو
مت
##له
##نی
مد
##اید
مس
##می
##بر
##بت
##قی
##ما
##شته
دست
گر
##توان
##اخت
میک
##اره
دار
##وری
##دا
##رف
##جه
نیز
##الی
##شک
دارد
##عی
##با
ایران
##که
##وز
کشور
وی
##امه
##شی
##ستان
##عه
##عد
هر
ای
اق
##فته
مج
نظ
##عت
میتوان
مق
نو
مر
##ایش
اما
انها
##اق
هست
##اف
##به
##یک
##نده
انت
پیش
قرار
##هاست
کم
##نا
##جود
ما
پس
عم
نام
بخ
تح
اد
##لام
دیگر
##شان
داد
جم
رس
اج
##۰۰
شهر
میکند
##فر
۱۳
##مین
استف
اب
اص
##نوان
استفاده
مش
انج
روز
##رکت
##هم
##ترین
##گیر
داشت
##نین
بد
مرد
نق
ات
##وا
دان
##وت
##ورت
میکن
##رس
بسی
جه
##هی
توس
باز
باید
عنوان
##خص
بین
گفت
##ازی
##امل
##وند
دور
وجود
##وه
##اک
پای
##اهد
کرده
همچ
زی
##دید
ده
۱۹
تن
##دی
حال
یکی
##مای
##رای
افز
روی
##خی
##اص
ساخت
##قه
گذ
اش
##هایی
باشد
##وب
مورد
چه
شرکت
دول
کند
##در
بز
بازی
##گان
بیشت
هستند
سی
اح
پی
اگر
##کی
اع
اول
##اط
##وش
تص
##یده
##نامه
شود
##گذ
##اتی
##وس
##یس
تم
شک
صورت
##شن
بعد
میده
نس
##وع
مط
##فی
تر
##ریک
بال
ساز
تول
##امی
##ارت
##اح
انجام
بزر
##ره
دولت
دانش
پر
چند
##فا
بان
مص
##رات
##من
بخش
۲۰
##مت
همچنین
فیل
##نج
تولید
اقت
کنید
##بان
هی
##قل
باش
میلی
##دار
##صد
شما
ماه
##لس
عل
##مانی
##کت
بیشتر
اینکه
##انند
میکنند
##ونی
اخ
##رب
اقتص
نظر
اط
سه
ارت
کل
##دود
فع
اند
زمان
بن
راه
جن
زیر
داشته
نیست
گرفت
##ابل
مردم
سو
##گو
توسط
تج
##ینی
##ایت
##لیل
بار
زمین
امریک
##لف
بزرگ
کنند
فیلم
##سته
داده
##مل
##کان
قب
تع
##گیری
بسیار
##تاب
بازار
##رح
##زد
تب
تاری
مث
##کر
##چه
بیم
دارند
زند
##خاب
افزایش
حس
اث
##ادر
شم
خان
##یه
##شم
##بار
##اپ
خواهد
بل
##عیت
گرو
فعال
جای
سپ
واق
شن
##گری
توجه
جدید
مدیر
##دم
نش
##عات
دل
همه
سیا
##نه
گرد
##جی
##زه
##بال
بوده
پرو
بانک
نشان
انتخاب
##مند
##مد
شه
##کس
نخ
تق
##غی
برخی
میدهد
کو
##باره
همین
افر
مخت
صن
هزار
مرک
##حی
##وق
هن
کتاب
ادامه
##گرد
منت
نه
##راه
شب
اخت
##انس
منط
مید
ور
##زین
##اور
##ضی
##کار
ایج
اغ
غیر
وق
سازمان
درصد
اسلام
میان
کردن
پرد
اطلا
کاه
##برد
اه
ایجاد
##رین
میتواند
خار
##وص
##ونه
##ولی
همراه
مه
۲۰۱
##بود
سا
##نان
میبا
دن
خط
گرفته
رفت
##ضا
##ستم
کاهش
##وط
گو
##هران
نا
##دام
مرا
امریکا
ری
مشک
دلیل
گزار
ترک
##رسی
فرو
##غییر
اعت
قط
شدهاست
##ازه
تغییر
##سان
شدن
##طور
جنگ
قیم
تهران
تنها
##کرد
برنامه
دریا
مانند
وارد
ملی
وز
عب
۱۳۹
مهم
خر
بودند
موض
##مه
##لب
##ژه
میشوند
حض
میز
دید
##تما
رسید
خبر
زندگی
شور
ري
جام
خی
##شار
برگ
دوم
ارز
حا
گزارش
ولی
دانشگاه
اشاره
نیر
علی
##بری
نسبت
##وار
نر
هیچ
چهار
میکرد
##ضای
وا
اصلی
قیمت
تاریخ
خودرو
کردند
جهان
کس
##ایند
##تان
بیش
##اهی
چی
میباشد
عر
##داشت
##ستی
معم
مجم
##یمی
##فه
۱۰
##ایل
بسیاری
میلیون
حدود
سن
اعلام
##قیق
مشکل
##یدا
زیادی
##هن
##ریق
سب
مخ
ريیس
علا
همان
##ران
##ومی
##راي
طول
۲۰۰
زبان
نفت
گذشته
نیاز
##باط
درباره
##ندی
فعالیت
داخ
مست
قان
جز
مختلف
نفر
اقتصادی
گروه
توان
##عث
تمام
منطقه
تیم
افراد
##ودی
حق
##سازی
موضوع
عمل
##ویی
##یری
##لو
اسلامی
دارای
##اي
##ظه
سرمای
##سه
اولین
##لاح
باعث
##ژی
##شر
میخ
تعد
نقش
##امد
شی
##بط
حتی
##ایر
##ابی
کمک
حضور
##مال
##اش
واقع
##است
توسعه
مسي
امرو
##بین
##فق
##صوص
##مکن
استان
##دن
میر
##ابر
پرداخت
ند
میل
سط
ارتباط
مالی
نزد
غذ
یاد
##ویس
قابل
سرمایه
گل
شکل
اغاز
مل
انگ
جمه
شخص
هد
##کتر
کلی
##سر
مشت
پیدا
دوره
طرح
خواه
فرد
##رایط
##صول
شرایط
##سم
خصوص
پار
سیستم
سل
سوی
##گیرد
جمله
##وک
اموز
نمایش
ممکن
۱۲
اطلاعات
نخست
بیان
فق
خرید
حک
رای
گفته
##ریان
##بته
روش
تشک
افت
##امین
یافت
البته
اور
##سال
##صر
لی
ساعت
دریافت
جهانی
رشد
##اران
قبل
بدون
شر
پایان
ابت
اساس
مصرف
اقتصاد
اجتما
میگو
##اخ
ایرانی
##صل
فروش
قدر
##کاری
##ویت
محصول
دیگری
طی
##راف
مرب
میشد
ارو
۱۸
شامل
##زارت
طرف
تک
اک
وزارت
##ومت
##واه
شدند
مجلس
##الب
کنیم
سری
زمانی
اقدام
سفر
رق
موفق
اپ
##اسب
پنج
کوچ
شاه
عض
اراي
##وهای
جان
کام
افزود
روست
##ثیر
میرس
مب
اجتماعی
کود
##گذاری
##ابع
##یب
یع
نزدیک
فار
پیر
طب
صح
ارايه
طریق
##ذیر
محمد
پاس
تشکیل
##کنون
قانون
چون
سطح
حوز
نتی
##ازم
خانو
صنعت
بررسی
گی
##جا
خاص
ندارد
نوع
وزیر
##er
نمود
یعنی
قد
هزین
برخ
##خانه
سیاسی
هنگ
##یدی
امکان
##جر
##اطر
چرا
قدرت
##ابت
برابر
تلا
زمینه
تاثیر
##ستر
کنار
میزان
سین
تحت
مک
مذ
۱۵
کی
تل
چنین
##یشه
مدت
نتیجه
اثر
نگ
بالا
مشخص
##اسی
تعداد
اسی
##ضر
باشند
هوا
ره
منتشر
اشت
##ثر
فرا
احت
جمهوری
دستگاه
بح
دلار
تاک
##ندگان
##داری
طبی
ست
##میم
##یره
##راحی
کال
مربوط
وقتی
مرکزی
##گران
کر
##پا
انقل
##ولا
انتق
##کو
##ابق
##دیل
##زشک
وض
تبدیل
مواد
مرکز
شورای
ساخته
##الت
##شین
موجود
بهترین
محل
##ربی
هو
هدف
صد
##لاف
بهطور
حم
##رفی
میلیارد
تلاش
کمی
قل
شرو
حالی
مغ
##نام
سف
##وانی
شو
کشورهای
##وست
##این
میدان
سمت
##پی
پشت
موس
##رده
بع
##جم
خانه
فقط
جهت
امروز
حوزه
سنگ
##تری
امد
شروع
عرض
##وعه
دوران
سیاست
دنبال
##نت
هنر
جامعه
تف
##گذار
##ورش
##الات
##ریم
شناخت
اض
بیماری
چشم
##قد
بده
محدود
تخ
صف
میتوانید
جا
۱۱
بودن
موسی
مین
##ناسی
حاضر
حل
خاطر
خیلی
##راین
##یتی
خوان
جو
دنیا
شدهاند
حمای
اجرای
خارجی
##فاوت
سالهای
کیل
##خه
میلادی
فی
نمی
##یار
تامین
واح
روح
مثل
نبود
امن
منظ
مرت
موج
تومان
سخ
انقلاب
تصمیم
##مللی
شا
خدم
##ادهای
برج
طراحی
لازم
داخلی
ریا
خانواده
شع
##گونه
##وي
نرخ
عملی
بناب
معرفی
##ساز
سپس
مجموعه
تاکید
سوم
میگیرد
فرانس
##اهای
نظام
##صی
تور
شبکه
بدن
##طه
اظه
##an
##زاری
منابع
##هنگ
معت
انسان
شیر
تش
حمایت
جریان
برخورد
##فاق
رنگ
##ریف
بنابراین
قس
احتمال
عمومی
سام
##ایع
بتوان
##ویر
دهد
##تا
باشید
بهره
##واره
##کننده
##خش
طور
سایر
کان
نمیت
متح
پزشک
##on
##کل
پاسخ
##وبی
موارد
کنتر
همکاری
مسیر
اموزش
ازاد
اظهار
اذ
میدهند
مدیریت
اثار
میتوانند
حرف
فرمان
پدر
اورد
نخستین
نمای
##سل
واحد
کسب
پول
اتفاق
##اون
لح
سخت
##انهای
##اتر
عد
نمیتوان
معمولا
##یط
شوند
حرکت
میرسد
هفته
##in
اینده
مدل
مطال
علاوه
کنترل
خوبی
جذ
قسمت
محیط
میگوید
##رژی
مار
نور
##لیس
انتخابات
رود
هنوز
##شنبه
مقام
ویژ
##ادل
جوان
مشکلات
نف
خارج
##اهم
کوچک
سود
کاری
نیم
##ربه
##امبر
##شناس
##هنگی
خدمات
۳۰
##زند
مشترک
اخیر
رابط
وضعیت
کامل
انتشار
##انده
کشاور
##دین
##ایه
کردهاند
##نو
##شناسی
ارد
۱۶
##اله
متر
##سیون
##یند
ویژه
هزینه
ثبت
##مز
برگزار
کشت
مناسب
ارزش
ورز
فرهنگی
انرژی
فصل
۱۴
گوشی
درامد
اضاف
هایی
فرهنگ
کا
##لق
موسیقی
##واهد
##پرد
##روف
##ناوری
##حه
مناط
##جمه
##زا
مقابل
شهری
فکر
تحقیق
اقای
##ینه
کسی
موق
پیشنه
ازم
زنان
##قر
##ستانی
گذا
##ar
##تهای
امام
##لیه
##جان
فوت
فضای
صاد
۱۷
##افق
بیشتری
احس
اصلاح
##بیر
گردش
مرح
داستان
عرضه
##تل
پایین
کمتر
لب
انجا
فناوری
هند
##بران
##یز
##اورد
هفت
حقوق
برد
درمان
تای
##لاس
میرود
ایت
##فاع
محصولات
##ویه
چیزی
پژ
مطرح
اسپ
جلو
محس
روسی
سرعت
دستور
قرارد
##عا
بینال
##وزی
کوت
انتظ
بلکه
##ظر
تد
زن
گون
##یلات
بخشی
##ابه
طبیعی
نگه
##قیم
پذیر
بهتر
شکست
##زب
ندار
نوشت
##گاهی
پوش
##تور
ایا
امور
پیشر
##دهم
مناطق
پاد
علمی
خوب
شرکتهای
##ارهای
داخل
مرگ
اجرا
معاون
۱۹۹
تهی
##ابد
نقل
##تیب
خبری
حدا
نمایند
مهمترین
زیرا
سرا
بیر
قا
عو
موجب
##یدن
نیروهای
دری
##شاه
مسل
امده
##گاههای
مهر
##ولو
شاید
چین
حالت
نمیش
داشتند
شناخته
فل
مادر
اروپا
##رم
تاریخی
اخرین
##اصله
عرا
##شهای
##گردد
پل
جمعیت
طبق
##نای
متن
##انت
##رت
##ابط
عضو
حف
فرزند
##سیس
مثال
بنا
##ینگ
دادن
تعی
بودهاست
احساس
۲۵
دخت
بور
تعیین
دهه
هنگام
نوشته
خوش
##مایی
شمال
خد
##افی
بیمه
##en
حی
اندازه
حساب
نسخه
نهای
اختیار
مشه
تهیه
جنوب
##الله
##بات
انان
زیاد
صرف
حمله
دوست
سرد
وسی
امید
ساختمان
عملکرد
مف
عبارت
برس
##ریح
کشاورزی
بنی
عق
##یکی
اینتر
قرن
گاز
وس
چاپ
مسيول
##واج
##پیم
اضافه
درست
بانکی
وقت
##يی
تجربه
ورود
عدم
علیه
##واست
رابطه
ابر
حد
##ریه
میاید
فشار
##نامههای
مسکن
رسمی
حمل
##al
جشن
تس
حکومت
روحانی
خون
ترتیب
پرس
مبار
##افت
##یشان
راست
ماده
ویژگی
دیده
سید
##غال
تیر
میکنیم
مرحله
اکنون
ظرف
دکتر
انوا
سلام
کوه
##لال
##or
لو
نیروی
نظامی
بینالمللی
##فع
ایم
قهر
اعضای
منظور
امار
خصوصی
اهم
سیم
میکردند
انواع
##at
المان
کیف
پژوه
##ايل
ابتدا
موا
روابط
روسیه
خدا
داریم
##پر
بحث
بگیر
مجموع
فراهم
##ظیم
فرایند
بعضی
##وف
##لاق
##مر
##وران
##گون
##نگی
عراق
مقا
شهرستان
##طان
##گشت
۱۰۰
کاملا
رشته
یافته
نشده
ایست
علت
بسته
##گوی
نکرد
ریاست
##وال
##وتی
حفظ
انتقال
مال
یون
فرانسه
تاب
##چار
##ههایی
الکتر
ازد
ارام
ول
دش
پیشنهاد
خاک
##وید
عرب
جلس
##ستگی
کد
اطلاع
گست
##ریب
چیز
شناس
##اهده
نویس
عه
ظاه
##وریه
۱۳۸
انتظار
نداشت
##عتی
##زمین
اتح
عامل
بلند
تحص
صحبت
معروف
خودش
امر
عملیات
مخال
عالی
روند
سایت
##جوی
استاند
##راک
بزرگترین
##ضایی
تاسیس
نب
سخن
گردید
##یتهای
##تو
حزب
نگاه
##بانی
محم
مدرس
دقیق
##انیا
##سیم
##هاش
تلف
##es
امریکایی
اهمیت
##اصل
انچه
##پرداز
ضر
##هها
اختص
##قا
شاهد
##جد
هوش
##بندی
روان
پیام
بند
دولتی
سازی
جنوبی
گرم
##غان
##لیسی
##خان
رخ
هواپیم
##چی
جد
خرد
درخ
##ابقه
تکن
تقری
امنیت
میخواه
##شده
##لیت
خیاب
کردهاست
درجه
##طی
ماند
علوم
نهایت
ایشان
اولیه
پن
اجازه
غربی
فاصله
ازدواج
همیشه
فوتبال
##ونت
##مندان
جل
کوتاه
حاک
##ویزی
بهبود
فارسی
دام
مز
تمامی
بیمار
##داران
مشاهده
صند
پروژه
مسيله
متفاوت
خطر
##وسی
غرب
اجر
##دیگر
فعالیتهای
تسه
##وله
مراسم
گرفتن
تصویر
##بور
کسانی
##قق
گستر
ساله
##جو
۵۰
پسر
محسوب
استخ
الکترون
قاب
دوباره
##وین
هشت
صادرات
برنامههای
##خته
مقدار
پایه
چندین
غذایی
تلویزی
۲۴
انگلیسی
سبک
ترکیب
انس
اتاق
الی
ارتباطات
خورش
قرارداد
روزنامه
اسیب
اختصاص
##اظ
الب
منجر
##بیه
##اساس
ایالات
سق
رقابت
توانست
جدا
پدید
تجاری
##گز
ابی
متحده
تحریم
عصر
جمع
اشک
همچون
گسترش
روستا
۱۹۸
صنایع
خواست
##الیا
بازگشت
فرص
##کنان
درون
خواهند
کاربرد
بالای
حتما
تعریف
معتقد
##زمان
جایی
##شا
##هایم
مواجه
##خصوص
موتور
دهند
کافی
دچار
براساس
تقریبا
سهام
رسیده
##تن
ازمایش
مکان
مام
##حل
کیفیت
هستیم
صادر
لذ
##سون
##صه
##داشته
ارتش
اغلب
خورد
##گانی
گونه
##ماند
نکت
تایید
گذاری
مسايل
##تای
##ندان
وظ
بورس
ترکیه
۱۳۹۵
ویر
ساده
همچنان
جلوگیری
کننده
دادند
عبد
##دهی
متو
کودکان
احمد
مبت
اهدا
##ومتر
##دان
جایزه
##گار
تقسیم
بعدی
##کش
۲۲
مها
افرادی
شماره
##حت
رهبری
##رانی
سوال
پزشکی
۱۳۹۶
یه
گوش
##ic
محلی
مهند
##نتی
حذ
نص
باقی
نشد
امپ
داشتن
دقی
عکس
رفتار
واکن
غذا
روشن
بهع
پارک
اتش
تجارت
اساسی
##کتری
واقعی
##روش
##نش
بانکها
وب
گاهی
نج
رون
##یتر
مول
ورزش
ژاپ
##لهای
پاک
دسته
ابتد
##نهای
تحلیل
نمیشود
ته
باور
میگردد
رک
۱۹۷
دم
مستقیم
فوق
نگر
باغ
انکه
مدار
##خیص
ضد
اعتبار
##قدر
یکدیگر
عهده
توافق
شاخص
برادر
میگیر
##يت
رفته
نشست
موفقیت
چر
ماشین
مرتبط
دختر
شرقی
درخت
دارید
مذاک
نباید
متع
خور
حداقل
نمونه
##امت
حسن
حسین
جذب
ارزی
##ادگی
فلس
##ولوژی
استاندارد
سیاه
مای
حجم
میکنید
##وریت
اداره
##رکز
##رافی
شخصی
پا
۴۰
ضمن
ادبی
نح
پیشرفت
دیگران
کارگرد
خرو
پخش
مدرسه
دفاع
##زاده
۲۱
ماهی
کیلومتر
##امپ
سهم
گذاشت
اجرایی
##باز
##بد
مان
رسیدن
ابزار
دانست
توضی
##۵۰
دنی
##ادث
فرم
##کا
کارشناس
##لم
شمار
قوان
تشخیص
مقای
همزمان
همسر
اصفه
مختل
##کنند
شمالی
##ریز
##قت
اماده
سعی
قصد
##ژاد
بیرون
باشیم
اصل
پایگاه
##وده
نامه
##جام
##ورتی
رییس
##تح
شهرهای
مرداد
حاصل
وح
شش
انجمن
استاد
##ماد
پیچ
مسابق
زیست
ندارند
##حس
شنبه
کاربران
لحاظ
البوم
کری
دهید
شخصیت
مرز
میگویند
صنعتی
دسترسی
خواب
اسف
تنظیم
سبب
مشغ
##باری
نقطه
##لیم
دوربین
کارهای
توضیح
حج
##بل
استقل
سفید
زیب
نماینده
تی
##الع
دبیر
##احب
##کنندگان
##غل
##الدین
##it
جدی
ناشی
دقیقه
حاف
ارسال
ساختار
کالا
##بینی
##لیک
اقدامات
سریع
##پذیر
صفحه
مقایسه
بریت
۱۹۶
مراج
موثر
صدا
##ویش
بهعنوان
موقعیت
مبارزه
برخوردار
سرویس
شدید
##انهها
گیاه
خدمت
ازادی
نوعی
کمپ
تحقیقات
حذف
استقلال
سرزمین
##ظت
حالا
سع
##گفت
کودک
درد
مطالعه
۲۳
متوس
قوانین
##يین
نیمه
##گل
اینترنت
سران
میگذ
پوست
##اج
درخواست
وزن
اسم
مشغول
نکته
##شند
عص
خاصی
وسیله
ثابت
الم
شهرد
زاده
اطراف
##الم
کشف
مقر
فارس
تازه
معنی
بودجه
##کز
##بع
میداد
دین
قانونی
شدت
صندوق
سلامت
تبلی
اصول
افغان
خیابان
اینجا
فیزی
##روم
جاری
مشابه
سپاه
##فتر
حو
صب
قم
نار
##is
الله
اسک
سرمایهگذاری
ژوي
اهنگ
امسال
درص
##تون
کره
##ریزی
مساف
رژ
بگیرد
تي
زد
پیروزی
رت
ذخ
لباس
نخواهد
میی
تاکنون
قدیمی
##ازدهم
چگونه
تخص
مذه
طولانی
مکانی
کدام
هوشمند
فنی
##ماه
هنری
سک
کشته
شرق
نمیک
درو
##برداری
خشک
##ایان
توانایی
اتحادی
هنگامی
تغییرات
##ویب
پست
عوامل
ببین
تفاوت
ذکر
مثلا
برگزاری
پت
رست
##گن
##او
تسهیلات
مسجد
بهداشت
اروپ
تصویب
مسی
خام
بروز
تبلیغ
شان
##ویل
جدیدی
بزرگی
نظارت
##ظم
##گیز
##ژن
##ربای
لغ
##بوب
##le
##راتور
حاکم
جزیره
پوشش
قطع
##ادت
نهایی
بازیهای
##طر
عربستان
جایگاه
اعتماد
معماری
مختلفی
سلول
دیدار
مسابقات
##غذ
باشگاه
مثبت
مشهور
##گانه
درگذ
گردشگری
حرفهای
اعمال
بازدید
چهارم
##لاین
اصفهان
رژیم
متعد
انسانی
قلعه
##عف
منطق
##زل
ملت
##عامل
واب
موسسه
تقویت
مطلب
صبح
سوریه
##بههای
لیگ
شناسایی
نیرو
سنتی
فردی
رادی
نسل
رقم
امروزه
##انههای
بخشهای
اختلاف
بش
بدان
احتمالا
هوایی
دشمن
##اوری
نقاط
قالب
رد
هج
اذربای
نمایندگان
رز
اهداف
شبیه
نداشته
پلیس
##علی
مجد
تحصیل
ناب
کارت
اخر
طل
روزهای
سینما
عمر
##as
هستهای
##نظر
جلسه
میبرد
ویت
علم
کف
تصریح
برق
روشهای
موزه
##گین
ظرفیت
نتای
مدتی
دع
برقر
نک
منفی
##ولیت
سای
کشتی
واکنش
میبین
بس
دستی
جشنواره
امیر
مشار
پو
متوجه
بست
مور
میگیرند
پیک
روزانه
نهاد
##گه
##وج
اید
سبز
په
##راض
سوخت
##روس
فول
بیشترین
##هام
نظیر
ناح
میکنم
اکت
##عم
بخوان
##وذ
زیبا
##میل
جنسی
سراسر
مسلمان
فرصت
کلیس
گیر
عضویت
اتحادیه
طبقه
روستای
خرداد
تدری
زنج
پژوهش
هیات
مدیران
تقا
مناس
تورم
امتی
##اخر
معامل
ماج
ژان
دومین
چال
تعدادی
مخالف
رفتن
سریال
گزین
نفتی
مخاط
منص
نتایج
مشاور
معنای
دنیای
پروت
##el
رتبه
کشورها
فرود
اهل
مراکز
مقاومت
سابق
##کور
ترس
بهمن
اینها
گسترده
محبوب
##شتی
لای
##انش
##شکده
بیت
ویژگیهای
عش
قابلیت
قدیم
۱۳۵
خبرنگ
دفتر
۲۸
عبور
افغانستان
##ro
زنده
سیاستهای
هیيت
جمهور
۲۶
##داد
تما
۶۰
پرداز
جاذ
کمیسیون
ریال
نبرد
اموزشی
خلی
مخصوص
متوسط
افس
##۲۰
##فون
گروههای
تروری
شبک
##حال
##اشی
عین
نیستند
بیا
##یشن
##لات
هستید
مشارکت
مانده
حر
۲۷
شوید
مییابد
سالگی
عربی
##عده
نبا
##شید
ارم
##قاد
##گرفت
توصی
##یدان
##بیت
مهمی
محور
مبل
ذهن
همواره
اورده
ظاهر
رساند
زم
##ناد
موسس
روغ
قهرمان
درصدی
باد
محک
ژاپن
##قیه
پرونده
۱۹۴
محقق
اگرچه
قادر
مقد
کمیت
کرب
خودروهای
##رن
نویسنده
طبیعت
معادل
دریایی
پیاده
برجام
گذاشته
ريیسجمه
##فس
##وپ
##am
فهر
##لند
جذاب
اشتغال
##فانه
##جویان
کردیم
هتل
حکم
##راج
باب
##هاید
سپرده
واقعیت
سنت
حقیق
##ion
##ارش
پادشاه
اذربایجان
انتقاد
##واری
##et
علاقه
ساح
جست
##الد
گیرد
##ندگی
کرمان
مطالب
چهر
برداشت
فرست
بدین
سند
توزی
##انیه
##ac
واردات
مغز
اشنا
رع
شیمی
گذشت
منتقل
پرواز
رهبر
##روی
تجه
اکثر
##افع
دارو
امتیاز
گروهی
##ماف
##یبانی
##رز
نامهای
سلط
رضا
پیم
##گزین
تجهیز
منبع
##نایی
##مهای
نظریه
##ولد
دیوار
گذر
پشتیبانی
کنم
نتوان
قبلی
ایل
بتواند
##کسی
ترا
تلفن
افتاد
عمده
افریق
اواخر
نرماف
مسابقه
##تم
توزیع
تهدید
##نوی
رفع
چنان
پیشبینی
مستقل
بالاتر
شعر
المللی
برده
صورتی
مجازی
دیدن
پیوست
نمایشگاه
سان
رم
اروپایی
##نس
##الهای
ترکی
اصط
##re
تکر
دوستان
دیر
انلاین
محاف
عدد
پرورش
اکس
پلی
##شه
مجبور
##عهد
##حتی
سم
طلا
۱۳۷
نفوذ
منح
نان
ابتدای
##نز
بریتانیا
مهندسی
جی
صاحب
قتل
بحران
صدای
سرانجام
سالها
ناحیه
قوی
مدیرعامل
گونا
زده
وظی
##گزاری
وام
اخبار
##روند
##سب
متاس
##us
اندرو
نزدیکی
جالب
فیلمهای
برتر
کاب
بازیکن
خرا
بو
تمای
کامپی
برسد
##he
دلایل
جامع
شهرداری
جاده
پاید
استر
کردم
کور
فعلی
مجوز
زود
بینی
گیری
گم
رض
ناخ
زندان
تض
هرچ
۹۰
خلا
##تخت
فضا
تلویزیون
میباشند
درک
انگل
رعایت
##اصر
امکانات
##مینی
تکنولوژی
ادبیات
شهید
بدست
جوانان
۵۰۰
##وتر
##باه
پرت
عقب
اون
۲۹
گراف
۸۰
حقیقت
##زم
همس
ارزیابی
اوایل
اعتراض
بخوانید
جنب
##صورت
##يم
مفه
اژ
بافت
مسيولان
باستان
##ناک
قطعه
##خصص
اسراي
میدانند
##زر
فهرست
هوای
مراجعه
خس
تمرکز
پایتخت
گران
ترد
کلا
ارتفاع
متاسفانه
میرزا
هزینههای
نرم
مبنی
چار
اردی
##زان
گشت
اعد
##قای
ترجمه
##جار
اعتقاد
تصور
متخصص
هدایت
قران
طوری
مردان
مهاجر
##بهشت
ایتالیا
جایگزین
رودخانه
نصب
شرح
خودشان
واژه
##کنید
مطل
برند
۹۵
##ریت
ذخیره
شبکههای
اردیبهشت
میب
معاملات
۲۰۱۶
اسیا
بالایی
کارشناسان
هماه
۷۰
بازارهای
بعدها
##اباد
غذاهای
نگهداری
خودتان
استق
امیدوار
حاشی
مدرن
مالیات
روغن
۱۹۳
مطالعات
بیمارستان
دانشکده
##کهای
فرام
##om
میپرداز
##وح
دادگاه
ترامپ
سرطان
بگذار
ورودی
##os
استرات
سالم
کمیته
بازر
گن
مذهبی
##روت
قهرمانی
##زای
##ادا
گام
تال
خواهید
نمیکند
دارایی
##قب
جزيی
مجاز
درگذشت
نامزد
تماس
نامیده
صحنه
توص
اسفند
واقعا
تاج
توصیه
قبول
##ing
زدن
فس
##اویر
ایده
شیخ
روید
الع
تحول
شف
جمعه
مقدم
##ol
##وگ
##برند
بیست
موافق
برنده
خواهیم
پال
هرچند
سور
۱۳۶
دستگاههای
معل
سرخ
مصر
##ادار
شیوه
عن
کلم
بم
دادهاند
##خواه
رشت
##چر
راهن
##پذ
##ومتری
فرار
ريیسجمهور
##روشیمی
زیبایی
اهن
شوروی
وظیفه
حادث
فرانسوی
##انیان
خیر
هاش
۰۰۰
##اکی
امنیتی
##طرف
##شاهی
دعوت
##ارف
##اوی
پدرش
کلاس
منتقد
خورشیدی
قرمز
##شمار
خل
حافظه
توجهی
سامانه
قطر
همانند
اپل
یار
##کری
##ایف
۰۰
اوراق
معدن
##ستند
##ورک
خلق
عنا
لیست
توصیف
##وقی
راهی
سنگین
الگ
##ومتی
رویکرد
اشتباه
واس
نمیتواند
پتروشیمی
کات
ارشد
##روز
گاه
تکمیل
جغ
##ژیک
توم
انگلستان
ستاره
۱۹۵
##عود
##گرم
اسب
انح
مشتریان
ریشه
انداز
عمد
همانطور
نقاشی
هواپیما
##ابله
حیوان
##اریس
کنونی
ماد
گونهای
##حیح
دریاچه
##مون
۲۰۱۷
عجی
شرایطی
چینی
قلب
عرصه
بزن
##لاک
کاخ
##ed
امپرات
نماد
##یترین
##غیر
##مندی
تمرین
ممن
##اشق
##ad
تابستان
مسيولیت
ریس
وابسته
##لت
یازدهم
مقدس
اطلاعاتی
مقابله
چیست
##ویم
##مي
##زن
##لح
شرکتها
اصطلاح
فرمانده
شای
نقد
گوشت
##زام
یهودی
هاشمی
دهنده
میخواهد
##میر
راحتی
یابد
##ساخت
روس
تخت
سوي
شاخ
##il
مفید
فاز
شهریور
انگلیس
##اهیم
##ثی
متعلق
ماز
ایالت
پولی
محاس
تصاویر
بودهاند
لحظه
تجهیزات
بازیگر
میداند
نوج
حفا
المانی
۳۰۰
له
##رهای
امضا
##اندازی
فرض
۳۵
روب
قبیل
نوز
دانشجویان
##سین
رمز
حضرت
دقت
##غم
مبلغ
خروج
سالانه
اتم
##اندن
لذت
قلم
علاق
تز
بدهی
مهارت
##یان
شار
اصلا
سده
خورشید
نحوه
خارجه
سیستمهای
موشک
۳۱
ارا
نرمافزار
۱۳۴
ناپ
غیرم
واحدهای
گرفتند
برنامهریزی
##خیر
##ur
رمان
##ضل
بگو
لند
اباد
درمانی
اسرايیل
پهل
گوشیهای
تکرار
حداک
پیوند
ها
##ct
محمود
غل
##کشی
گوگل
محاسبه
بندی
عموم
نکرده
کلید
بگیرید
مقامات
بنیاد
رستوران
کمپانی
تند
سپت
##درا
##گرام
امپراتوری
مهدی
##اتیک
##بیل
##پار
پروژ
ورزشی
##رض
سرباز
بزرگتر
##عیف
پیگیری
مطمي
اپراتور
کیلومتری
ملل
##یدند
شغل
مالک
چندان
درس
خراسان
الان
مناسبی
کشوری
سیر
قضایی
##کاران
جلب
##گاری
حادثه
رح
میافت
روایت
ادم
دیدگاه
عباس
هرگز
پنجم
کاربر
ویتامین
سپتامبر
بچه
دس
مجله
دهیم
صرفا
مفهوم
سخنرانی
میلاد
اختلال
خبرگزاری
پان
کمبود
جس
مرغ
۱۳۹۴
حقوقی
اسید
نماید
##يو
توپ
کارشناسی
مقاله
شیمیایی
ایس
لین
##کام
بهار
متولد
##نجی
میاورد
سرک
داشتهاست
مارس
۱۹۱
رده
نادر
میتوانیم
##تاح
مراحل
جزو
ششم
اقامت
نگرانی
کارگردانی
سد
درح
حاوی
ماس
تبریز
تاز
نمون
کشیده
##ارتی
ثروت
ابن
تلویزیونی
پاریس
##چاق
مساله
دینی
##رار
دارم
ژن
شاع
استقبال
جبه
##ارا
درگیری
##ادن
۹۶
صفر
نشود
تان
هجری
موب
##قات
##سیل
ابان
##طل
خوا
ریز
قطعات
۲۰۱۵
پرچ
کامپیوتر
برجسته
تپ
##وانه
تحویل
##وردین
قوه
منطقهای
بشر
بودم
رایج
خلیج
##تها
دخ
علیر
##احت
##ونا
عث
نژاد
عشق
اولویت
##وای
موسسات
##نشان
خش
رونق
in
دف
##گرایی
معمول
ایمنی
تخصصی
وسایل
الف
بیماریهای
برمی
عادی
فن
شهرو
##ریش
اعتباری
گیل
بندر
فضایی
راستای
فروردین
شهرت
دیج
وال
##منستان
قاچاق
بپرداز
علايم
##عب
چطور
بنیان
پادشاهی
ضروری
ریاضی
مخالفت
##صال
خاور
نیازمند
برقرار
نسخ
ممنوع
میساز
جرم
اکتبر
میوه
خانم
خوردن
##ورو
خویش
چپ
دهم
رانند
##ایق
غیرق
بخواه
پذیرش
افتتاح
الکترونیک
##گا
سینمایی
الکترونیکی
خانگی
سقف
خلاف
بالات
روستایی
بومی
##وقف
گرفتهاست
دمای
لغو
##کها
سلطان
جواب
وید
ستاد
متوقف
بتوانند
سامسون
##نوعی
ژانویه
بهشمار
چهارشنبه
میروند
درام
اگاهی
حفاظت
مشهد
##اکس
نموده
نجات
ازمون
سختی
حداکثر
اینگونه
بدهد
قضا
الگوریت
نباشد
میشدند
ایرانیان
##ch
##سازان
بک
شفاف
گوناگون
مطابق
پیمان
میرا
مشرو
داری
نیوی
اذر
سلی
تخریب
ژوين
چای
محت
جاذبههای
اتوم
محله
کیلو
لذا
تصاد
##ot
بازسازی
##ناس
ساکن
عبدال
مذاکرات
تولیدی
##کران
##فاوتی
الکتری
خالی
سامسونگ
##عش
##قیان
لندن
##ag
ضرب
عمی
##خار
صلح
##بند
درگیر
سیل
جنبش
امدن
st
بانکهای
متصل
۲۰۱۴
عبارتند
بهر
فراوانی
اوریل
وار
مانع
اندروید
حدی
میرفت
the
##جع
قز
##جانی
ادعا
مبتلا
فرودگاه
خریداری
چش
##لیلی
بای
##وچ
باره
۴۵
##بخت
دیپ
جغرافی
هید
کارگردان
دوشنبه
ایین
مهاجرت
تياتر
کتابهای
##ویق
##ودگی
##id
اسناد
بازرگانی
حاشیه
فیزیکی
عجیب
رف
جدول
بشک
##امون
متقا
کنندگان
۳۲
مذکور
بید
قه
نکنید
مذاکره
##بول
کارخانه
صحیح
راحت
کلمه
زبانهای
تابع
بگوی
اطمین
سقوط
مواردی
۱۳۳
پیشین
محکوم
تعط
جع
بارها
##ردگی
هما
پیچیده
##تیک
نوامبر
وعده
بردن
##لاقی
##طوری
##قیب
مگ
لا
افزوده
##un
بروید
بهد
تعامل
سابقه
زمینی
تری
های
۲۰۱۲
نیویورک
نفس
قدم
##شتر
دریای
دسامبر
ارامش
مینم
قی
جبهه
رکود
مبتنی
##سیر
پور
صدور
میانگین
بگیرند
متعددی
خاطرنشان
متغیر
خطوط
##دراسیون
روزی
یکشنبه
هشد
##لر
روبرو
باستانی
خال
نات
##زاد
فلسفه
محدودیت
اطمینان
بقیه
ارزان
زا
##پور
فعالان
##کول
بهصورت
کانال
تدوین
خواندن
میانه
داشتهاند
یخ
مقررات
##انداز
متهم
طرحهای
پایدار
مجمع
منافع
فولاد
##ویز
##امله
اوت
رسیدگی
مجدد
##اشت
اژانس
خمینی
ارمنی
##زده
فراوان
کت
نظری
فتح
گردد
ابع
عدهای
تخم
مون
ایفون
##دنی
انداخت
##ویا
بودیم
پناه
خات
##گرا
##زوم
مشتری
بدانید
##خو
زمستان
ساحل
روانی
فلز
تحقق
خن
وجه
فرزندان
مستند
میگفت
بازیکنان
##یرد
ارتباطی
رسانههای
دموک
لایه
سلولهای
##شای
گرفتهاند
##پولی
۱۹۲
زرد
لشک
توق
رسانهها
۳۶
جر
##انا
##گردان
چرخ
مرور
عدالت
مجه
پرچم
۲۰۱۰
فوریه
##میه
اشتراک
اسپانیا
متحد
دسترس
کنس
چربی
تعهد
حرک
##داث
دستگیر
میخوان
۴۰۰
۲۰۱۳
##املی
##پیک
##زنی
عاشق
برگز
خودروی
##برت
##ابری
پهلوی
جلوی
خوانده
کتابخانه
الکتریکی
بدهید
تحصیلات
##پس
ریزی
##ندر
تقاضا
تمایل
اندازی
تبلیغات
تنگ
نبوده
بگذ
یادگیری
عوار
حیات
احداث
محدوده
درحالی
خداوند
میگرفت
قطعا
پروتيین
انگیز
خاط
ماجرا
رسانه
۲۰۱۱
تغذ
##لین
##پرس
میراث
مجموعهای
معامله
ساس
کلیه
رکورد
عف
##چوب
کارکنان
چالش
خبرنگار
جنگل
سلاح
اوقات
نوجوان
دیجیت
برود
مینویس
ضعف
انف
##جویی
موبایل
##زیک
مسلمانان
پنه
ران
##زیه
ثانیه
رایگان
##وبه
وضع
مربی
اپلیک
۲۰۰۸
خودم
##شهر
##لز
ولایت
##احی
یافتن
ابعاد
کالاهای
##شاد
نوری
معمولی
رها
##راح
اوج
##مالی
عناصر
احتر
فراموش
بکار
روزها
معرض
##ولان
وقوع
تحریمها
داي
اتحاد
متم
##مار
جنس
##ورا
بازنش
انع
ردی
پایانی
##هایش
۳۳
خواص
زخ
پارس
نوشتن
میافتد
شیراز
ژويیه
مردمی
شگفت
ویروس
اتصال
شبه
سومین
سالن
نمیده
##رسانی
معتقدند
تراف
##کم
##جز
چقدر
بازداشت
لط
کمتری
##ورده
##ازده
وان
صفح
##لاغ
##الح
مطب
منع
کارگران
مشترکین
رویداد
اشنایی
کانادا
##گذاران
اتوب
##ندههای
هشدار
فارغ
اوردن
حملات
##العمل
بیماران
هماهنگی
روم
شیرین
هماکنون
##جای
برداری
##ig
##جات
عثمانی
معنا
نقشه
توی
##اژ
تقد
گیاهان
معظم
۱۳۹۳
سرپر
##کتور
پیرامون
فران
همراهی
##مدی
مربع
سوء
##وام
##نشین
قدرتمند
راهکار
زیرساخت
##ut
اوپ
پیشگیری
##بخش
نسبتا
##ستا
مجهز
اسما
راس
گردشگران
مخاب
کلان
##ستری
مقط
سخنان
سعودی
##زستان
۱۳۲
##iv
نمایشگر
افکار
ابراز
تدریس
##شیر
اهالی
مایک
قمری
عوارض
اتی
اسان
##راحت
نهادهای
دستاورد
بارد
انتی
سوز
ارمنستان
افتاده
##باب
##گاهها
ستون
خاند
هویت
##سیک
مقاومتی
باند
اصلاحات
##ia
گند
an
نماز
دربارهی
ملک
سیب
ریسک
۹۴
میایند
##مدت
عوض
قربانی
منحصر
عمدتا
حیوانات
تدا
اگاه
کلیسای
پروژههای
پدیده
##زایی
##گویی
داعش
دقیقا
میگذارد
اضطر
عک
فساد
تماشا
متعدد
صادق
وظایف
صدر
قلبی
##اقع
۲۰۰۹
برخلاف
احترام
##ینژاد
سراغ
##سک
##فاعی
##قیقی
تربیت
میزبان
##od
بوی
سالی
هیجان
ضبط
##ملل
ارتقا
سرم
گفتگو
نواحی
اداری
پلاس
سنج
##ضان
ترکیبی
گری
##ردهای
انسانها
##دل
اخذ
پیشرفته
فدراسیون
ملاق
حوادث
فرماندهی
شهروندان
تون
۲۰۱۸
##لیف
میبرند
ادع
هستم
هور
صلاح
میهن
عزی
##ay
گور
سازمانهای
چهره
اثبات
پاپ
موضوعات
بشکه
کجا
گلکسی
هنرمندان
استراتژی
##جب
وین
ترانه
مدعی
میخواهید
##اما
مصوب
##جایی
خواند
ببینید
مسیحی
##ایست
استرس
##خوان
اینترنتی
مبنای
##ستها
چک
مسلح
##کیه
##خر
معتبر
اشکار
اکث
واسطه
باری
مزای
کنفر
مطمين
of
##مع
##ent
اتهام
##پوش
معدنی
توانسته
یونانی
دیوان
کنگر
خاورمی
اقیان
مصاح
انقدر
##همند
سینمای
قبلا
ضعیف
##مانه
واگذار
ارک
##اموز
استخوان
ببر
یورو
عمیق
استرالیا
الودگی
##پذیری
##یتان
دما
##برگ
دانشمندان
افتخار
کابینه
هرچه
اسمان
بازاری
منتظر
مکت
تغذیه
##درضا
تشویق
##im
جمعا
کانون
خانوار
اشغال
بت
ترجی
مسک
فلسط
۵۵
۲۰۰۶
موافقت
نگران
لزوم
سلس
##چههای
نمایندگی
##سو
تکنیک
گفتو
راهاندازی
ارایه
موقع
جور
الگوریتم
تحریک
متفاوتی
##صاب
استی
۲۰۰۰
برنج
ادرس
##ايی
##لان
گزینه
##سلط
مازند
اندکی
فایل
جمعی
ضربه
افریقا
کشورمان
مصاحبه
سرو
هار
زنگ
##اتور
جراحی
پیشنهادی
پرسش
دای
انقلابی
برگشت
مربوطه
غار
قول
نوسان
کاف
خاورمیانه
۱۳۰
چوب
خروجی
میپردازد
چارچوب
سبزی
رضایت
ایستگاه
جزيیات
##ir
مظ
پاکستان
##غام
وف
هیدرو
ابتدایی
##ul
مطبوع
تولد
##پولیس
##انو
مطلوب
امتح
##باح
ملاقات
استودی
فهم
شیعه
همایش
میزند
گش
##دهنده
##وشی
##انگ
##شکل
ناگه
ظه
۳۷
ماهه
مدارس
گرایش
۲۰۰۷
خواننده
جغرافیایی
انگی
گیاهی
مینویسد
جهاد
دستورالعمل
پیامبر
##صیلی
ویژهای
مسیح
درم
خشونت
عبدالله
نمیکنند
عملیاتی
بالغ
نشانه
##کردن
هل
منزل
روبه
کنفرانس
کاند
محتو
روزه
ثبات
نای
حسینی
بهینه
۱۳۹۲
دندان
شهرها
دون
اتفا
بران
رسم
##انیایی
##شدن
یزد
راههای
حین
میزن
متقاضی
امروزی
داروهای
دود
مری
براورد
میسازد
شغ
##یاری
غذای
مقصد
گمرک
کاپ
##امیز
کودکی
افزار
ابراهیم
اعط
الهی
چراکه
۱۹۰
##وردی
لوازم
##ap
نیازهای
##نامهای
رادیو
##عهده
میخواهند
خواستار
اخلاقی
گنج
تجزیه
۹۲
سوار
نوین
اعدام
منتقدان
##غه
##um
##ومه
حلقه
فش
همهی
مدرک
بازیگران
نرس
یکم
خاندان
انص
مشکلی
##رق
سکه
دره
اتفاقی
دورههای
باکتری
بدی
عصبی
##امع
۱۳۱
##em
مسو
مادرش
##باسی
شرط
تفسیر
##امن
باقیم
باتری
یاداور
دیدنی
گرچه
قیمتها
مامور
خوزستان
مصوبه
جنگی
بهتری
##بس
ناد
ضرورت
تقاضای
دستیابی
اتوبوس
۳۸
هرک
ویند
##ولین
استانبول
سخنگ
پرسپولیس
##st
نع
##سری
محمدرضا
##ستهای
محققان
کوچکتر
نخواه
##گونی
برایتان
##نیا
پلا
قاجار
کربن
پرداخته
حافظ
ابتلا
احمدینژاد
رونمایی
ناک
##بازی
عظیم
قض
##ارات
مراق
ترجیح
رنج
مدلهای
پنهان
خواهر
نشانی
گذار
ساختن
رانندگی
دامنه
بخت
دشت
شنا
نمید
##گرفته
##فل
کنگره
رسانی
مدیره
کاربردی
فت
انز
۴۸
امدهاست
افسردگی
تروریستی
بگذارید
برزی
نمایید
دروازه
خلاق
ارس
احتی
طرفداران
میخورد
تصرف
منطقی
فکری
بنای
ماموریت
وک
##زدی
دشوار
##۰۰۰
قیمتی
المپیک
انتهای
تقل
۳۴
##طبی
احساسات
کاغذ
حامی
کشید
مجددا
##خانههای
درستی
محاسب
تعادل
زنی
سوا
##غد
مخفی
خطی
##اپور
ناصر
قاضی
اختصاصی
پذیرفت
اتمام
احتمالی
امتحان
##ینا
##ویری
##هات
هفتم
جزء
ایفا
نگاهی
بالاترین
##بک
شورا
قبر
ویل
##یکس
امریکای
نمیر
##دت
جانشین
لبنان
جمعاوری
دانسته
فری
شکار
کلاسیک
ابزارهای
تفکر
##یسی
جیم
الح
ایسنا
پالایش
فیزیک
سلطنت
اخیرا
طلب
ابلاغ
سطوح
دادهاست
مصنوعی
بنزین
نهم
سلسله
محافظت
##یاش
توقف
راهبرد
قند
##ایتی
##وسف
مایع
بمب
میخواهیم
اسکار
اشع
دادههای
درختان
تنهایی
کاربری
همگی
محیطی
هسته
کهن
امادگی
##اطع
##وسته
نواز
کردستان
والدین
خز
هرگونه
تحریمهای
شکر
مخاطب
سازنده
بستگی
##خاص
مالیاتی
##الیایی
گفتند
جلسات
حساسی
پذیرفته
برقراری
تنوع
میکشد
ابوال
خم
کلاه
##ter
گیلان
ظهور
##ارستان
محروم
##گونگی
تاثیرگذار
فرس
##ورند
##یدر
واژ
امو
انگشت
تصویری
قسم
هندی
لوله
ترافیک
##کارت
اندازهگیری
##نویسی
کریست
معاصر
هنرمند
دربار
##ایم
غیره
طیف
خودکار
خواسته
##ویان
کنسر
محسن
صلی
رفاه
نفع
ایکس
کارها
تولیدکنندگان
حاج
دانشگاهی
مگر
چگونگی
تجدید
گستردهای
بدنه
قسمتهای
تحمل
لایحه
مسافر
ارزشم
کوش
مساحت
شعار
ویندوز
##ادو
دانل
##حسین
بستر
داشتیم
کرمانشاه
مقطع
ایمیل
کلیسا
خانههای
##وایی
لات
۲۰۰۵
پارل
مراقبت
برعهده
##رفه
اندیش
دراز
تمدن
کوتاهی
##نظ
کوچکی
هکت
دوازدهم
de
یونان
امت
ظاهرا
بهخ
سینه
خبرنامه
گفتوگو
همسرش
##اذ
بیاید
۴۴
یکسان
##میلی
سعید
##وکار
##افر
گیگ
کالای
سلامتی
شاعر
تیمهای
##پت
##ونگ
##نگاری
توری
جبران
۲۰۱۹
فین
رشتههای
شواهد
نداریم
تردد
سخنگوی
ch
ناز
امین
نویسندگان
دلاری
جانبی
مینماید
متمرکز
##راس
عمق
تجربی
تاخیر
مشکلاتی
دیپلم
شغلی
##اقد
##پرداخت
قطار
مسکونی
معاونت
لر
ماههای
نیازی
##یدگی
خوشبخت
محتوای
##فرو
کارگ
رسانهای
نقدین
##بتی
عنصر
شارژ
##ایات
##التی
گیم
اری
##ضه
صوتی
نمیدان
شکایت
##ضاع
شهرک
##مزد
##صیل
اولی
نقدینگی
قطعی
فرستاد
##عهای
منصوب
پرده
اقیانوس
حوزههای
گندم
کنسول
خوراکی
میبایست
اسل
سردار
یادداشت
ایستنا
##گهای
مسافران
دشمنان
ژاپنی
۷۵
##ورید
بدهند
مازندران
اکران
نده
رومی
میدادند
مرات
اثرات
اپلیکیشن
##راسی
مات
پارسی
میدهیم
پرست
پهن
##ابتی
برطرف
کمال
##ow
تخلف
##گش
دبیرستان
انتخاباتی
##فای
دانلود
زوج
##واز
نیک
حقیقی
فاقد
کاس
##na
بغ
وزارتخانه
شدم
دیجیتال
اندیشه
متناسب
پرتاب
استخدام
عقل
اوری
##گرایان
بعدا
##رنگ
افتاب
طلایی
خورده
متری
ازای
##کلی
##روسافت
##ادله
الا
زمینههای
##ابند
شاد
##اسم
معلوم
۱۵۰
فیلمی
ایام
سانت
ون
راستا
اتفاقات
بوش
استع
نوزاد
میخواست
##ation
##وها
میتوانست
##وارد
نظرات
سایه
##ندهای
تلگرام
الکت
پراک
خبرنگاران
مخل
موان
عرو
ماری
عقیده
شخصیتهای
گال
پیوسته
##وعی
معرو
مورخ
انگیزه
هزاران
نکات
بابت
بیل
اظهارات
##پو
کمترین
حالیکه
میاور
مترو
تبع
هشتم
۹۳
##نوشت
بهرهبرداری
تيوری
مایکروسافت
هکتار
یهودیان
بالاخ
خشم
جری
جنبه
واگذاری
قالی
##ردی
##شناخت
فا
یکپار
کردهایم
##عیل
فیبر
موز
##ریس
خانوادگی
##ته
الگوی
جلد
زمینهای
بماند
اوضاع
عط
خودکشی
پژوهشی
تست
نامگذاری
غنی
گفتم
قص
شرک
##خوانی
امی
کوههای
بگوییم
لقب
تسهیل
##کین
##ایلی
بالاخره
دانشگاههای
پردازنده
##وههای
مرتب
غلام
خودمان
طرفی
##يون
تار
اشخاص
دخالت
الگو
مستقر
فرش
متق
دفاعی
بیکاری
##ورهای
نگهبان
عز
مخاطبان
روستاهای
دايمی
وسط
##تاژ
الهام
اقا
سفارت
اشکال
اوست
معیار
پنجشنبه
جستجو
##هنی
میامد
خطرناک
مض
امضای
##ویسی
بردار
دوچر
صرفه
##og
یارانه
توج
انب
گیگاب
##ویج
استانهای
حرارت
انجایی
کیلوگرم
قطب
##يه
حساس
دروغ
سیگن
سیما
تمی
اچ
برزیل
کالی
الس
##and
##کنی
سواحل
##ایشی
دهان
##یاء
مشخصات
ارشاد
##ولت
صندلی
خسارت
۴۲
گونههای
داوط
یو
میکرو
##شماری
##ابور
انتظامی
ادغام
احمدی
سنگی
تزریق
جاب
ایمی
گزارشی
طراح
ذرات
باقیمانده
لحظ
بساز
##وکس
کنون
ردیف
پیروز
مصد
صحن
ریش
ابشار
خودروسازان
شهرسازی
داغ
۸۸
بخار
سانتی
هنرهای
میماند
دموکرات
##ودر
##ستیک
مسعود
دختران
تحولات
میگرد
پردازش
عملا
وحدت
##فترین
##اسیون
شباه
اعداد
جوانی
اوپک
کلیدی
ببرید
مقاد
مجازات
##زدهم
ایتالله
شناسی
##ادمی
تومانی
طعم
تنش
کارکرد
شری
منف
##الیف
بتوانیم
علیرغم
اتومبیل
موقت
۴۱
باخت
سفارش
##یما
میشوید
مباح
میشناس
معلم
جانب
##ظاه
مدال
اجاره
رهبران
بزنید
سپرد
امپراتور
اسماعیل
هواوی
همد
بلاف
تحصیلی
ورزشگاه
۶۴
مخدر
گردن
ارتقای
خوشم
ویلی
اخلاق
نمک
تلاشهای
نیوز
تایل
زودی
اموال
استح
##ایز
فدر
قدمت
استعد
اکثریت
تفک
##یمتر
استانه
اسن
اردو
تضمین
پرف
ابهای
##مح
ملاح
چندی
ناو
دارویی
##وهی
مطالبات
مایل
غیرقابل
تولیدات
فراتر
کلیک
برداشته
کرو
سریعتر
رقیب
##صری
بهداشتی
راننده
میگذار
نابود
مینام
حمام
تکیه
بلافاصله
ژنتی
دبی
پایی
##پل
رقص
سنی
کارایی
گره
##ظی
نمیتوانند
لم
دارا
نهایتا
صعود
مردی
##راب
شکلی
##ذر
جوش
اضطراب
استراحت
متنوع
سازمانی
سیمکارت
ایتالیایی
فلزی
چندانی
مهمان
نتوانست
قضیه
مى
##اصره
مذهب
۶۵
شیعی
اکبر
سلطنتی
سار
نقدی
##خورد
عکاسی
۴۳
##ri
فیلی
تدریج
امارات
خودروها
۱۸۹
تماشای
استد
جزایر
عرف
قوم
همدان
خاطرات
بنده
میت
##دای
۵۷
بری
گز
منظم
تلقی
##ra
##اقی
اتمی
حجت
تعلق
قزوین
کابل
۲۰۰۴
مکمل
میگذرد
برون
قاي
نمونههای
شعبه
موضوعی
بهکار
##جاست
##اتل
سربازان
##فیف
دب
استانداردهای
۱۳۹۰
##op
مقی
دغد
زین
تشریح
بلی
زر
محاصره
فرستاده
##ناطی
سکونت
خطاب
علام
##پین
تحقیقاتی
انبار
مالکیت
##ناطیسی
گذاران
مسکو
منتهی
قسمتی
خودداری
ذهنی
خلاصه
##وود
##غر
مغزی
کلام
##راع
نکند
زندانی
شبانه
##سد
مقادیر
مخالفان
##اع
قدیمیترین
re
عروس
ماست
قار
##oc
فاط
عفونت
شام
چاه
دراورد
التها
##زاب
ایمیلی
قراردادهای
دوچرخه
حاکی
اتخ
میرسید
##کوپ
کول
۶۰۰
دادهها
##دامی
ازار
نشر
موانع
سواری
تالار
همینطور
ناس
ادعای
توابع
بسیج
پایینتر
##ازن
۵۱
##فتد
۱۳۹۱
راهنمای
امیدواریم
زیبای
##عدی
ساکنان
پیشتر
##سانی
فرمول
بچهها
۱۲۰
مقداری
شیشه
لشکر
بازاریابی
##رال
الن
شاخه
نداشتند
##باف
قهوه
خب
##پزشک
فض
رفتارهای
۲۰۰۳
ستار
برساند
حساسیت
سرنوشت
نوار
بلو
اتخاذ
۳۹
نسبی
مرزهای
فرک
کشیدن
کتابی
تظاه
##قان
انیم
##جاع
تپه
بره
بازیها
هواد
داشتم
##اوز
##سکی
۱۹۹۰
صلاحیت
مکتب
گازی
همکاران
تازگی
شایع
فراورده
رنگی
نخستوز
اواز
چنانچه
قاره
کلمات
##طن
##مرد
بام
گرافیک
حرکات
جنا
عموما
جدیدترین
##صار
۰۹
مبارز
برگزیده
بنام
موضع
شویم
هاست
محتر
شتاب
نوت
شهادت
گنبد
##راتی
وبس
جیمز
فوقالع
راک
تخمین
ویدي
برن
عظ
فقر
دهی
مسا
نت
##شو
۸۵
بانکداری
مخابرات
بیاب
روبهرو
مند
بهطوری
بازگرد
تکلیف
گیت
اشپ
بگذارد
دگر
ویلیام
قلمرو
چراغ
##صره
استدلال
کارگر
##لیتهای
مدارک
خدای
##زبور
مشورت
اکادمی
بگیریم
##۸۰
نشانههای
عادت
میبینید
۸۰۰
سفیر
صهی
بیرونی
باران
راهنمایی
کشورهایی
وسیع
شورش
درج
نقض
فلسطین
اگ
##مانند
حاکمیت
ارزشمند
دوازده
تشد
##وفی
مرزی
##افز
تمیز
##جاری
بله
بیستم
##نویس
##سمه
معادن
##سا
مدا
se
لیس
موسوم
ضریب
بهای
خالص
کمونی
تشدید
##عان
##کوس
##دیه
ظاهری
اسیای
##بورگ
دانشگاهها
امیز
جاس
##جستان
کیه
سطحی
برگرد
۵۳
کامی
زرت
فدرال
##طو
متشکل
برتری
im
هلند
اعزام
نیت
درونی
گوشه
ببرد
##ab
نشریه
مجتم
موسوی
درامدهای
نیش
۴۷
متمای
صحت
پدیدار
فره
وبسایت
##کنیم
##قرار
محوط
۹۱
##فتی
والی
al
##دری
سرکوب
گزارشها
کالری
پری
بغداد
مهندس
حرم
۴۶
تحلیلی
مایکل
تسلیم
مهاج
هواپیمای
تعطیل
کارهایی
مخلوط
خنک
حفر
##فیق
تفاهم
پتان
مجسمه
چشمه
اسیایی
لهستان
شمسی
پزشکان
بیند
ابه
دوستی
تصمیمگیری
یمن
عبار
##اندهی
الزام
سگ
##ختن
استخراج
تعمیر
##اسط
اندک
بارداری
طرز
سويد
کارمندان
##فش
هایش
تولیدکننده
اندام
فیلمبرداری
##فرم
ناام
ایرانسل
رایانه
بنابر
البر
مستم
تصادفی
یکبار
استث
##کب
۵۲
روانشناسی
چرخه
##طلب
گردیده
عهد
۵۴
اختل
##ویژه
##متر
بکش
لوک
افرا
ساختمانهای
نمیدهد
مشم
مباحث
##اورده
مهار
خوشبختانه
هواداران
عالم
گزارشهای
داستانهای
مدافع
اله
تام
کردید
ماندن
##اونی
ساماندهی
دولتهای
همسایه
قهرمانان
ماجرای
مناسبت
کاروان
فرمانرو
رام
کیس
تردید
درگذشته
مالزی
وابستگی
احزاب
##حسن
ساختمانی
جدایی
۷۰۰
طال
میزنند
اتریش
نظم
انکار
##شویی
خودروسازی
اسکن
دانشجو
قوا
##فران
زودتر
ایوان
اکسی
##پذیرد
محبوبیت
قن
محاسبات
جاذبه
تابل
بازمی
سرمربی
۳۵۰
۴۹
سپری
رنگهای
فرید
مزایای
##چهای
بهویژه
فیر
نمودند
تجاوز
مرجع
کیش
##بای
مصط
جنگهای
۵۶
برنامهها
علیرضا
تها
تصادف
چهل
الدین
مخصوصا
جوامع
شل
بزند
رسما
امری
##الا
هماهنگ
لاتین
شاهزاده
##زمینی
اضافی
تعاونی
ساحلی
نوجوانان
تبادل
##سام
هندو
صادراتی
پات
شوهر
چیزهایی
هیچگاه
اشعار
نمیکرد
##ce
کشاورزان
ايت
خراب
صدها
مواقع
تقدیر
امدند
نوشید
##خواهی
مدنی
پارلمان
برایش
یاری
تث
##ak
مراجع
مجری
##احتی
سرپرست
داستانی
ایمان
##وجود
فیلمنامه
ویدی
زیستی
##یرهای
توجیه
##بیا
سوسی
رسیدند
ترکیبات
معده
##وندی
نوروز
جداگانه
خسرو
اعضا
بشود
یکپارچه
میرساند
##رود
تعطیلات
میدانید
معروفترین
جستجوی
الوده
نداد
سانتیمتر
تروریسم
##صلی
۲۰۰۲
فروشگاه
مکر
مقیاس
##ثری
ماهیت
خرم
مصرفی
مشخصی
pro
سادگی
کاش
اواسط
شکم
خوشمزه
##ers
##انیهای
رضوی
بخاطر
تفریح
رفتند
محرک
##دهای
شهردار
کریم
بیه
ترش
منشا
تیره
روحی
سایپا
ذخایر
نرو
محترم
##یاط
قیمتهای
پرا
شریف
هواپیمایی
ماموران
برنامهای
استقرار
العاده
##گم
##ونها
نوش
##وتو
ایز
رج
نوبت
نامش
##عل
##ارک
بزرگان
امواج
اخراج
ضخ
##یدهای
تکامل
اصلاحطل
تبلیغاتی
نواوری
راز
##اسر
##ولف
مکانهای
پرندگان
گرجستان
یافتهاست
ساسانی
اختلالات
##ارن
دستگیری
پشتی
مردمان
تاکسی
لن
گفتن
##قام
##age
فیلتر
##چسب
شنیده
دستاوردهای
نوشیدنی
دادستان
##خل
پایداری
sp
دیوید
کوهستانی
نحوی
رقابتهای
##خود
اعتی
صهیونی
بیانیه
وحشت
رواج
##وسیله
دیروز
مداوم
ارومیه
زاي
نیمی
اي
روشی
نسخههای
ظریف
زیان
پروانه
تداوم
فرکانس
##بهای
برقی
معین
جفت
خوراک
عید
انفجار
بگویم
##ظف
ممل
شانس
۲۰۰۱
۱۹۸۰
پذ
چهارمین
غیرقان
عباسی
تجرب
محلول
میکردم
com
صفحات
زه
##قلی
میاورند
۲۰۲۰
میدانیم
توت
##جمله
مولکول
مراتب
خامنهای
املاک
اعتیاد
ناخال
##سور
##ویچ
##التح
ظرفیتهای
##ولیک
سوپ
غیرقانونی
جوایز
بهدلیل
مشا
لاری
##شها
میدانست
دستمزد
مزار
##مره
موظف
##ماسی
راضی
حمید
برابری
##افرینی
عام
ملا
ایفای
##تین
اوب
##الدوله
قایق
سرشار
مولف
فارغالتح
کامپ
مشاوره
زاویه
ساختاری
اقوام
ترویج
##امده
شنید
کوان
همکاریهای
خواهان
##خانهای
قصر
گمان
فو
بینالملل
۰۸
انق
مهمتر
##ess
جسم
بف
طاق
بهدست
عسل
##باع
۱۰۰۰
نادیده
پوشیده
برادرش
اماری
زلز
سپه
۱۳۸۸
مطلق
مهارتهای
میانی
پسرش
مطبوعات
شلیک
صفوی
وص
ارامگاه
ar
am
بختیاری
شکلگیری
تاثیرات
پرنده
کالیفر
##یص
ناه
فرق
اسیبهای
sh
##ضع
متون
میبینیم
سبزیجات
حامل
وکیل
##باس
پیروی
مانی
سوالات
شیش
مارت
تراز
پژوهشهای
تالیف
نعمت
سیمکارتهای
الوم
تدبیر
نوک
رفتاری
خلیفه
میشویم
دورهای
فیس
##شینی
نامن
سکوت
متقاضیان
استراتژیک
الاس
۸۲
وقایع
۱۹۷۰
##بو
##پیوند
سرقت
##گرمی
گوی
رمضان
##یتون
معنوی
۱۸۶
لاک
##روه
##یتا
##پای
عزیز
##جهای
پاییز
شباهت
ترور
ریچ
مفاهیم
سیاره
بلوچ
نوشتههای
اجباری
##همان
بتوانید
وای
##سکو
الت
##نشینی
کردهاید
وسعت
برم
زح
رادیویی
کارل
دستگاهها
گذاشتن
دز
تفری
امریکاییها
تثبیت
##الیسم
##افل
تسلط
انهایی
ساعات
قابلیتهای
سفرهای
۱۳۵۷
الکس
تفکیک
##نجان
##ویض
فروشی
##واس
خوار
نفره
حش
خوی
تجمع
اوردند
##يیه
##واک
۱۲۸
##ثیری
پید
##یهای
جوی
##ینت
نقط
پژو
محمدعلی
##شیان
دهستان
ملکه
صلیبی
۱۸۷
گناه
##te
درخش
اقدامی
حکایت
برف
کارنامه
اکسیژن
##ip
فرمود
همج
سهامداران
پورت
علامت
سرود
۵۹
اراضی
هورمون
وسیعی
سراسری
۲۵۰
دامن
فراز
فرایندهای
سیاستم
ذوب
بخواهد
انتشارات
راجع
قايم
##افرین
۸۶
بدل
##اندر
پیامکی
همت
اصرار
بزرگسال
بهشت
شناختی
خرج
خانوادههای
##هیز
صاح
چسب
اکسید
اهواز
خاصیت
##راکم
ضل
کرم
توانستند
قیام
##سرای
##ادهاش
##یسم
##ملک
گیگابایت
قله
مدیرکل
فیروز
بازیگری
محض
امکانپذیر
تایلند
شکن
واض
اینطور
ورزشک
اوی
کنسرت
بناهای
شکاف
مغناطیسی
بازرسی
رایانهای
زیارت
خیال
اعتراف
جعفر
۹۹
طبقهبندی
##گزینی
مسيولین
اینستا
##ذی
مصطفی
##چین
دیابت
۵۸
تغییراتی
بررسیهای
افریقای
طاه
سیگار
واری
نمیشوند
سرشماری
شیعیان
یاداوری
##ادات
اسد
کسبوکار
##یکا
اسپانیایی
ثمر
##ژیکی
طلاق
##رضا
مدیریتی
تعهدات
##گام
تبی
منتخ
مکزیک
بهانه
فردا
سیگنال
میخواند
رابرت
تیرماه
##وریان
هخ
##البی
نقشی
بخشهایی
فای
نادرست
بروند
رقابتی
چوبی
مقالات
ویديو
مسدود
کاراک
##نگری
کاربردهای
##سرا
مجتمع
چشمگیری
درخشان
سويیس
دونالد
وصل
فروخته
##شور
##ارتمان
ضرر
لیتر
##av
##گراد
درخصوص
نیروگاه
تصمیمات
وات
نوسازی
۱۸۸
پلت
انبوه
غلط
قايل
محوطه
متدا
متخصصان
قبال
نابودی
خستگی
##اکتور
زلزله
##البا
کمرب
حرارتی
اثری
گوناگونی
مود
داریوش
##اء
شکسته
شعب
حز
ايتلاف
زاد
دفن
بیاورد
##انگیز
اساسا
فتنه
بق
##ولهای
##مایشی
خاموش
رزرو
انگاه
شدیم
اوک
دانشجویی
گویش
کارامد
بازتاب
وحشی
کشتار
ثروتمند
ارمان
##مایند
پراکنده
رنو
نشدهاست
اجتن
گواهی
فقیه
اختلافات
نگار
##جن
منس
کالیفرنیا
گاو
حریف
##if
##فاده
کلین
هرمز
برادران
دوی
##خشی
تخصیص
##جمهوری
کفش
التهاب
##سوم
فراوردههای
فشرده
سیستان
پنجاه
مدتها
اصولگرایان
مرتبه
##ودا
کناره
میگذارند
شست
پنجره
ببرند
پیکر
هخامن
##پن
پژوهشگران
بوشهر
##all
لطف
بلوک
احتیاط
جنایت
مقرر
پاش
بخصوص
فناوریهای
نگارش
میخواهم
ازجمله
زای
چالشهای
##گرای
فلزات
خونی
ناظر
صاحبان
مختص
مسیرهای
زخم
میگفتند
بهطوریکه
کرسی
اینچ
اختراع
تخصص
عراقی
پتانسیل
پروتکل
and
اجتناب
کارش
ابری
اعم
تشکر
ایه
نخستوزیر
نصر
##وات
تعاون
مبادل
۷۲
اموزان
##منی
قرون
زنجانی
غالبا
##فیه
ریخته
ماب
تبعید
بقای
دراین
هدیه
##نم
محاک
همکار
حاجی
لوکس
۸۴
##عکس
دهها
نایب
کیهان
سونی
##بایی
صی
شادی
قدس
کبد
بوت
قراردادی
##اتوری
کردی
##کوه
ناگهانی
##طاف
میرسند
جناح
فروند
دولتها
فوقالعاده
##سن
تجار
خاتمی
رستور
##۳۰
بیدار
استحکام
اعظم
حدودی
داراییهای
##ونزی
صنفی
تخفیف
راهبردی
کالاها
لیت
##ردن
استناد
بنگاههای
عضلات
بازنشستگی
روزگار
بدنی
مرتضی
دال
استعداد
سرت
سرمایهگذاران
مزیت
توه
ابهام
اینستاگرام
##ستون
۱۳۸۹
فور
پم
روانه
۱۹۶۰
##طالب
دربر
امداد
قضاوت
دفع
دانه
##شناسان
عصبانی
دک
اصلاحطلبان
ارژ
انجامید
دانشاموز
دایره
بهادار
رصد
استن
موجودات
##ov
سختاف
بزرگر
مثبتی
نقص
بخواهید
غر
تحرک
سیف
خریداران
چهرههای
میگوی
نمایان
محدودیتهای
خزانه
رگ
##میمی
خصوصا
پارام
ناوگان
کب
نقلیه
بلیط
مغول
مادی
تخلیه
حکومتی
##الو
اینه
##یمان
زبانی
اینچی
۶۲
امتداد
خسته
بلا
بلغ
۶۱
اگو
##ard
نکنند
متداول
طرفین
##گشایی
سازندگان
برلین
##ساله
سنگهای
پیامد
جسمی
دادیم
بهرام
##شق
ندارم
فاطمه
سرزمینهای
##est
##چشم
۱۸۰
مکانیکی
معبد
سرور
سپاهی
بابک
تفریحی
گرما
اعطای
مسیری
شلو
نازی
میبیند
مستقیما
مرو
استانی
استانها
##ub
کارفر
مرحوم
طرفدار
امان
ارای
شیرینی
یافتند
th
##ومیت
میلیمتر
دیدگاههای
شریک
نقره
اندازهای
کمدی
برگرفته
وج
رسمیت
فاکتور
پیادهسازی
فجر
ناخالص
##نر
ریاض
تحلیلهای
##کف
انعطاف
سلیمان
هادی
شفافیت
میرو
محص
##شترین
محتوی
ارتقاء
بخواهیم
مگاپ
واضح
pl
تعقیب
ظهر
صبر
میدارد
تعرفه
میدهید
تحسین
مصاحب
نوزدهم
مشاغل
اصلیترین
زور
##رفت
بپردازد
وارداتی
##نمایی
قرص
بنویس
تعویض
نیا
ارایش
چرب
کوانت
حبس
گویا
ابدا
بینداز
قضاییه
##انتین
ویرایش
ایرنا
فیلمها
۱۲۹
جایگزینی
دنباله
فرصتهای
سنجش
تیمی
برپ
دوری
نامی
فاج
الکل
بعنوان
قضايیه
میری
گلستان
فینال
سازماندهی
اراده
چشماند
##راق
لاریجانی
کوب
جنین
تحمیل
میکرده
جلال
نز
##اهنگ
گذراند
غافل
##ورن
یاران
میزد
جواد
بگویید
##چال
رسیدهاست
کیم
##شهری
حفاری
فارغالتحصیل
مقت
غلبه
زیبات
مجاهد
##توجه
##ابادی
پرهیز
کمکهای
علاقهمند
##ang
بهخاطر
ولتاژ
مصالح
جنگلهای
کروم
معتر
مصل
واکنشهای
##باران
ندارید
##رید
تمدید
جریمه
غالب
##یای
مترم
لباسهای
ip
##الین
درحالیکه
نظارتی
##ذکر
۶۶
شاگردان
زخمی
الجز
نمایشنامه
جواه
عاط
کارمند
غز
##بره
نجف
##شنگ
##ie
داوطلب
خانوادهاش
کاوش
هیل
۱۹۹۹
مسایل
##نجانی
پرداختند
نبودند
کاست
کارد
##په
اوباما
یوسف
ژنتیکی
ارشی
سازگار
الملل
مجل
سمی
رسان
تازهای
نمیشد
رسول
روزمره
فرصتی
اعراب
شنیدن
##قهای
طلای
زنجیره
ناق
##فرست
کرج
۷۶
##ob
##سمی
میف
محمدی
##ell
##رها
تران
خوشحال
بزرگراه
ict
رسانده
اقایان
##ist
سایتهای
محکم
حرکتی
کاندید
##گیل
معص
بات
##نیم
جنبههای
منظر
حاي
ناگهان
عیسی
۷۷
گلو
جین
دلیلی
مواضع
دوش
خصوصیات
جعف
عکسهای
هالی
##ایا
##نگار
مشروطه
زیباترین
تظاهرات
سازمانها
۷۴
بازه
نشری
موت
##ايو
شاخصهای
##بوک
فاضل
##خشد
تطبی
سوپر
وزیران
توهین
##الث
اطلاعی
۱۹۹۸
تقلید
باشم
ارزشهای
اکتش
عارف
عادل
خطا
اعتراضات
بگوید
بهرهگیری
جابه
تاثیری
نشسته
رفس
سلطه
un
میشده
##th
کویت
امارهای
##جاز
کارتهای
to
کپی
بردند
فردوسی
پنجمین
پیکسل
واقعه
بنیانگذار
سون
ارقام
احکام
رویه
معای
داروها
برکن
تلخ
##رویی
بهدن
پسران
##پزشکی
لوي
کنی
افزون
##رون
ریاستجمهوری
نداده
##کسیون
زیرزمینی
ریاضیات
is
ادوارد
مقاوم
##ine
##ورم
فرنگی
روستاها
گواه
۸۹
##یافت
##وتا
پذیری
منا
نهض
مداخ
اجلاس
میپردازند
اثاری
##ظمی
حیاتی
هف
درحال
سینا
ریچارد
ساک
##يید
زیرساختهای
##سف
گزینههای
اجتماع
قرض
خانوادهها
اقداماتی
مقدماتی
ژنرال
افسان
چنانکه
متمایز
خیابانی
اجزای
مغازه
مطلع
خزر
سویی
پیروان
سرویسهای
تالاب
جسد
قوت
##منت
##اشته
منتخب
بلژیک
طنز
##طوبت
سوره
عقاید
نصف
ذیل
##یدم
زرا
شیوههای
تکه
دیم
##ریر
گویی
رحم
علمیه
تعبیر
رطوبت
هزینهها
عمارت
اگوست
جذابیت
تیپ
منصور
##الیز
اسکات
صبحانه
مینامند
جهش
محبوبترین
قصه
انگار
البرز
ساق
شخصیتی
جک
کین
##فورد
تاجیک
مریم
سنسور
##ne
سلولی
غم
روده
رساندن
زیتون
کما
##مجم
غی
راها
بیفتد
پیچیدگی
خشکی
۹۸
مجید
مهد
هندوستان
فلور
بابل
میانداز
شایسته
##وجه
داوری
مشمول
قاعده
دستهبندی
نود
دانمار
##مانده
##اهن
خیانت
##طوب
##پاشی
اندونزی
##وفان
##کال
##وتری
اموخت
حروف
ببینیم
##حساب
ناراحت
هول
##امیک
فراگیر
کاشی
تجربیات
le
حیاط
بهشتی
هیت
دریافتی
شرکتی
بارسل
گارد
کیفی
عمان
رویدادهای
الومینی
علل
سح
ازمایشی
ماهواره
سرگرمی
ap
##کته
تاریک
en
راحتتر
پیشرو
شیب
هواپیماهای
۹۷
##دال
##چیز
us
احیای
ازمایشگاه
کشتن
اسامی
ناراحتی
ne
جنج
##فرد
##نیه
بدانند
##زش
بانوان
چرخش
##اهیر
موزیک
حریم
پاسداران
##وزه
خلبان
متقابل
##ارشی
لرستان
راهاهن
##وگرافی
##ونهای
خیابانهای
تضعیف
بپرس
فعلا
حبی
##سالی
بهم
برسند
رغم
عال
بنگ
معی
ارکستر
استادی
توده
صدم
موازی
بدهیم
ویديویی
توانمندی
توط
تبلت
شیوع
بدانیم
##اسازی
دیا
۶۷
##یلی
##دیده
موتورهای
دادگ
##کسون
انیمیشن
همسای
علنی
تاسیسات
##وقت
شیطان
مارک
صحبتهای
افرین
نمادهای
پیدایش
جلوه
##کنم
متوالی
نقشهای
۱۳۸۵
برترین
کوهستان
السلام
سامان
۶۸
ابادی
چشمانداز
پیامی
اردبیل
محتوا
درمورد
چشمگیر
عج
دهک
جعبه
اسیر
انتظارات
بادام
##bo
##الیست
##یسازی
انتقام
ید
اسلحه
پرچمدار
تمرینات
دموکراسی
برپا
اپراتورهای
شاگرد
##per
بیس
بکشد
ارشیو
الق
هیچک
##ويید
شماری
as
کمربند
بارش
استادان
برا
سرتاسر
درهم
نخواهند
قالیباف
کلس
درسی
کالج
خلاقیت
دادگستری
سازد
##ity
بهرهوری
ریزش
ad
معکوس
عمرانی
ph
گیرنده
الاسلام
##اتا
##وتن
بازمیگردد
۷۱
##يل
##مود
##بن
صهیونیستی
تبیین
زدند
میپرداخت
نهاده
تسخیر
مستمر
حوا
قفق
##کانی
برنامهنویسی
بلندمدت
شوم
فرعی
مکعب
غیرد
con
##سپ
##ارها
گروهها
بهنظر
گرفتار
بالق
پهنای
فاجعه
بیانگر
##ستمی
هیچگونه
بایستی
بروج
فضاهای
درامده
روحیه
##بریم
بشناس
بیگ
شیرازی
##ترا
پاي
اسکی
کاراکتر
مشاب
دژ
##حات
پنیر
یارانهها
گود
بریتانیایی
گیرند
برانگی
میلیونها
مشهورترین
فریب
برچسب
تعلیم
پردیس
نهضت
سبد
غیرمجاز
۸۷
دایر
خرس
هیچکس
ماهانه
هری
کارافرین
داروی
##لاط
۶۳
سفری
ابیاری
##خوار
جامد
مرطوب
پوستی
زنگنه
گربه
رستورانهای
اشیاء
بردارد
فیلس
امیدوارم
سیمان
باشگاههای
گا
اپارتمان
معادله
##میان
انهاست
قشر
۰۷
انتخابی
تعجب
##شاری
ایستاده
افق
سنگینی
جعفری
گلی
##ويل
مناق
محف
کمر
بطور
##غالی
نمیتوانیم
جورج
نمایشی
tr
چیزهای
##قول
##سلطنه
##لاند
دانشجوی
پارچه
محاکمه
##سنگی
بگذارند
##بلی
خانهها
پاداش
cl
قوای
##فسی
##طانی
نگرفت
۸۳
حامیان
تصدی
##منان
پیشروی
##ud
ایات
جمشید
ناچار
پیوستن
برمیگردد
فقیر
درب
تبصره
تونل
نیشابور
کاز
نبودن
خودرویی
هجوم
اطلاق
سوراخ
##الس
ارمغان
مدام
تلفنی
بوک
بنز
عمدهای
##زیست
##ايلی
دکتری
صاف
شدیدی
پیاز
مکرر
دیسک
##نون
##گانهای
##ate
بلوچستان
غول
لار
سرچشم
میافز
شهروند
۱۹۹۱
##يوس
سیت
فراخوان
##باشد
زیرمجم
نامناسب
##طیلی
بهت
سیاستگذاری
صندوقهای
عمران
بدتر
کسر
بیماریها
حجاب
تقدیم
بادی
۸۱
##یشگی
ابتکار
کاشان
یازده
تجویز
ویران
##لای
واحدی
کتب
بهجای
شوک
کارگاه
نفری
اعتبارات
پالایشگاه
قزاق
نوسانات
عبارتی
ضمان
##نل
تنفس
پرویز
بارز
مراقب
بنیادی
استاندار
پارامتر
ایدههای
مارتین
نمره
کوچکترین
چگ
سرپرستی
جابجایی
##خره
##گرهای
روسها
زرتشتی
پیتر
حماس
مغذی
راهکارهای
ارژانتین
چاق
عرص
فلسفی
پرتو
رقمی
نگرفته
دیوارهای
##عباس
برایشان
ایلام
موشکی
##ok
بازرگان
ربات
سیک
جنگلی
وضوح
سلجو
میگردند
طرحی
##رمانه
لیسانس
پخت
##شب
نامید
قومی
##نیز
نحو
استعفا
ممت
##اصد
بوم
ارزشی
##هاب
حرفه
ترسیم
۱۹۹۶
۱۹۹۴
دعا
##ایفه
کوچه
تشی
دیل
کمپین
بهدنبال
استعم
ابو
مطمينا
اینجاست
مرده
لیبر
بوس
بحرین
بپردازند
همجنس
اردشیر
عاطفی
##حد
بهروز
مسايلی
قارچ
##دارک
تعبیه
خاتمه
##قدم
روشنف
شکنجه
شاپور
گچ
طباط
بیبی
۷۳
کسری
خشن
زع
##یرت
روسای
کرای
for
کمونیست
پتر
غف
##ue
کارگری
بحرانی
مناظ
یونسکو
لیبی
میشن
نمیخ
۱۴۰
روایات
میدانستند
۱۹۵۰
##فاعات
دیدم
##ack
مبارک
خدماتی
طایفه
عقد
۰۱
بزرگسالان
نرمافزاری
##ولتی
وزرای
مسیحیت
اقلیم
کتی
اسطور
##وره
راد
سرما
حسب
تنی
تصفیه
رفسنجانی
##اییها
##رسنجی
##art
##جانبه
فون
زنجان
گرافیکی
خلافت
ازمایشهای
مادرید
مینی
کتابها
##استفاده
پلیاست
استوار
ارتفاعات
سويی
۱۹۹۵
نداشتن
##ice
هستی
عزت
فقه
ایدي
اگهی
سرنگ
مبادلات
۱۹۹۷
۱۹۹۲
بالاتری
الک
اعصاب
القا
متعهد
زندانیان
سیستمعامل
واشنگ
هان
دانشمند
براین
تزيین
خنثی
مجزا
باریک
بچههای
دوگانه
##خانی
##ارم
نظرسنجی
کوروش
فوری
توانمند
فعالیتها
صالح
غرق
گرایی
تاریخچه
##igh
موسیق
امامزاده
تابش
##یکسلی
##ant
پوند
اسات
مساوی
گردان
برشم
مزمن
کامپیوتری
##io
پین
برش
متولی
دلخواه
جانوران
پله
رقابتها
عده
دادم
مگاپیکسلی
رستم
سنگاپور
جالبی
##فروشی
##الیستی
سوالی
واشنگتن
قلی
گفتهاند
مفصل
فروشنده
##کلت
مسوولان
میپرس
image
ابزاری
پرک
##انسور
##وارهای
هرکدام
۱۸۴
##ونز
مخزن
هرات
##ستیوال
ساسانیان
جادو
اداب
خودروساز
حدس
زبال
ادرار
میکردیم
امدهاند
مشابهی
##غیب
۱۱۰
دبیرکل
تکنیکهای
مزبور
استارت
دشواری
شناور
ملاحظ
بهوجود
کمکی
بلندی
برندهای
تخلفات
نروژ
مصلحت
مجارستان
تدارک
ربی
##هزار
کلسیم
انحراف
شاعران
کلاسهای
ایراد
##خیز
خیلیها
بط
پودر
##ولههای
کوک
بستری
خواجه
مسیحیان
نمیتوانید
یی
##صاری
معاملاتی
برویم
تعدیل
##زیستی
انی
##چیان
تعلی
##ساب
##نیک
قفل
ساختارهای
لبنی
مدنظر
پمپ
ex
تیت
هفتاد
co
کریمی
##سترول
بابا
اسکندر
درواقع
##هایشان
ایمن
مکانیک
بزنند
صریح
پوشاک
مینمود
##ارض
مینمایند
دوستانه
بدترین
حسابی
##وزن
مواجهه
تیز
قفقاز
اقتصاددان
ختم
ارامی
پرتغال
۰۵
##بالله
نمونهای
کاندیدا
جمعیتی
۷۸
مجموعههای
کرهای
معاف
باکو
دکترای
پیت
پیشرفتهای
sc
جاد
##شدت
دستیار
تبعی
ربط
##عاتی
فرماندهان
قبیله
پیا
##انیوم
کوهن
##ive
##حق
محافظ
مصدق
##یلد
ابراه
سرچشمه
تهم
##رایم
ریلی
انچ
اشتبا
احساسی
عاش
شهدا
##روح
نوازنده
اقتدار
جادهای
وادار
قره
هوشی
۰۶
بیز
حلق
##ولوژیک
فراری
خرده
هیپ
تایمز
پادشاهان
اقلام
ناشناخت
پاسخگویی
تابستانی
قاسم
##ادین
هال
سالیانه
مقدمه
ضلع
قهوهای
سانتیگراد
انرا
سنین
##سار
قطبی
ma
میپذیرد
واع
نوجوانی
کشی
پرخ
نژ
دوام
##زبان
دلایلی
میدید
زمانهای
تقویم
خاطره
داور
قاتل
##لک
سازهای
تحریر
فرماندار
##باد
##بستگی
ستارگان
حالتی
گلهای
ویتنام
ممنوعیت
##رایی
برعکس
##کنه
گرداوری
##ولوژیکی
چشمان
غذاها
بالقوه
تراکم
کارگزار
کارا
عظیمی
همشهری
ایرانیها
هیدروژن
معدود
معضل
۱۸۵
افراطی
۷۹
فستیوال
الیاژ
مناطقی
دیپل
##خد
۱۳۸۷
بول
پلیاستیشن
کلمبیا
##٠٠
مادرب
قاشق
حدودا
نمیدهند
ناصرالدین
##ثار
توقی
سلفی
زهرا
##الها
قنات
##راز
##یرو
موثری
خوانندگان
یاس
حمایتی
##ریا
قاعد
برهم
فراکسیون
حذفی
گلوله
گشایش
کیک
بنشین
اطلاعرسانی
باشک
فریاد
احتیاج
متنوعی
مقاصد
##واسته
گرا
واسط
ماندگار
سواد
طبقات
ضمانت
دغدغه
شص
عاملی
کلسترول
۰۲
لایههای
قید
لرز
کابین
مازاد
فرهاد
نشاندهنده
حدیث
والیبال
چنگ
برسان
کبیر
یونی
دفاتر
بعضا
##ill
ایزد
نمودار
##اهو
تواناییهای
دختری
شمشیر
فال
فصلی
میس
##وزف
غریب
۱۳۹۷
مزارع
تغییری
لغت
نانو
ستایش
bl
تکان
جزی
##فهای
روشها
فاصل
##ایید
تاپ
نگرش
واکس
سلمان
میگویم
ابداع
##ذیب
##شون
نمیخواه
بیانیهای
##وتین
میلان
##امو
خانوادهای
نسخهی
زغال
##یشی
##کیو
مادری
اصیل
##زرگ
##کشان
ورشک
##نظامی
اشراف
سازه
##هری
میشه
تشکیلات
قدرد
چارلز
طرحها
تسلی
۹۰۰
روشنایی
##pt
مرتفع
رمزنگاری
بپیوند
متنا
پروفس
مهرماه
میافزاید
ارجاع
محافظه
شایعات
هلی
لنز
نگذ
خونریزی
دانههای
شماست
ریخت
نرخهای
ببینند
ريیسجمهوری
استودیو
فواید
##واب
##پد
ساند
کوانتومی
کتیبه
مسيولی
گفتیم
کاتولیک
##وشن
ندهید
مقبره
اروپای
قبایل
۱۶۰
ببیند
##وهید
واک
حوض
نتوانسته
فورد
استودیوی
گوسف
##ینو
جرج
گویند
انزیم
##رداد
تسویه
ماشینهای
بازنشسته
اسنپ
موهای
##اسلام
توالی
مناظر
نواخت
مصاد
اسباب
##ge
زحمت
۰۴
ماژ
##ast
نقطهای
خوشن
##اقب
##یشنهای
غلات
جایز
فقدان
۱۹۹۳
مقالهای
میزبانی
تفنگ
منچ
بازنگری
pr
قواعد
لبه
عواملی
نشانگر
مداخله
##فری
۱۳۸۶
ضخامت
ترو
mar
فروشگاههای
مسافت
تفاوتهای
قطعنامه
الگوهای
شیشهای
سج
شدهبود
عس
ناهم
نزدیکتر
همدیگر
کاشت
اکتشاف
##عودی
صورتهای
جیب
رساله
مشروط
جویی
میتر
یهود
مثلث
۶۹
میشناسند
##ass
مرسوم
اذعان
محیطهای
گرمای
##فعال
ماتریس
دیپلماسی
راند
مهاجم
الومینیوم
ریه
۱۹۸۹
ریت
##وریم
##روب
تهاجم
بازدهی
اساتید
همیشگی
سي
تنفسی
مزر
ضو
##کتی
شجا
هام
پویا
مقص
طباطبایی
تلفات
ac
سنا
اصفهانی
ویزای
##مدان
رسوب
موری
##ودن
خاکستری
ثان
بخشها
خریدار
سامانههای
پروفسور
پرسید
شلوغ
سرنشین
تراش
تود
همای
ضوابط
##اسد
سیار
ترمیم
لیزر
اراک
خنده
قراي
گردشگر
تیراندازی
پیرو
نخب
وحش
تطبیق
هیچکدام
تسری
دوربینهای
دغدغ
اوکراین
انداخته
نازک
چادر
اعطا
بیابان
شصت
اسانی
توماس
رانندگان
گفتنی
سازگاری
پرطرف
غیردولتی
فنجان
اختیارات
خیابانها
الجزایر
برنامهی
عمودی
بصورت
موجودی
سپردههای
فریدون
دهههای
گوجه
دايم
دقیقی
دوب
دودمان
قدرتهای
##یع
مدی
گرگ
##شینگ
درای
شهدای
دند
##فتگی
##لها
نکردند
راهپیم
پیامهای
باورند
بویژه
گذراندن
تعرف
کالایی
معا
متا
بستن
بوي
مجروح
دموکراتیک
##کولی
ونز
کوی
کویر
پرفرو
کشم
کاک
۱۹۲۰
فاضلاب
##بق
##زید
مناز
دهانه
ريال
فرسوده
لیم
موردنظر
جزیی
پش
اندرویدی
اشی
##جین
##امدی
ایند
تعطیلی
ابادان
شاهنامه
سرسب
۰۳
خبرگان
موفقیتهای
بدهیهای
شیا
میدانم
فلسطینی
مترجم
رضایی
ترغیب
۱۳۸۴
مفهومی
عاشقانه
سهشنبه
خدایان
##خودرو
##وهیدرات
تهر
##قین
##جامد
تکمیلی
جهانگیری
فیسبوک
لاز
##يینی
بازارها
بشری
تاریکی
گذاشتند
ارگانی
بنگاه
مصاحبهای
ایرلند
نمیرسد
پلاستیک
##الحی
##گردی
تزی
یوگ
حلال
حوالی
لینکی
جاهای
توقیف
مدینه
سهمیه
هرد
اوردهاند
احیا
##زینه
رهایی
متحرک
کاسته
##روژن
توضیحات
بلغارستان
تله
شریعت
جرایم
سرش
مجاور
تناسب
جکسون
مزد
ادب
شطر
دانشاموزان
قاطع
گفتار
زنجیرهای
پیامدهای
گالری
وه
نقاش
رفتم
نمودن
مسافرت
رزم
be
فروپاشی
اشپز
مبدا
باغهای
کارگروه
ثالث
غارت
۱۳۹۸
جانبه
وجوه
تبعیض
##واد
پایینی
گرفتم
میبینند
خیره
مبادله
برگزید
مسم
ماک
شاغل
##امداری
انحصاری
بتن
تشن
مهاجران
گرام
واشینگ
قدری
گرگان
انتقادات
##کاب
تعلیق
##باکس
at
مکه
دیجیتالی
te
ضعی
مضر
خمیر
افریقایی
گفتمان
go
خطرات
بورسی
پروژهها
نخبگان
نشریات
انسانهای
اهنگساز
افسانه
##شناختی
بهخصوص
##لانی
بوجود
ناپذیر
واشینگتن
حکیم
حکمت
پلاک
بیگانه
مرمت
بالینی
نکردن
##یزیم
گردو
بعید
لمس
حايز
میگ
دستهای
##اقض
کندی
حیث
##زامی
بوسیله
##گوش
##خند
نمایی
تهیهکننده
انصاری
پلتفرم
دانمارک
سرس
اصالت
پرطرفدار
سوس
درا
اماکن
مینو
##ويلا
##ورها
شاخههای
میدانی
سکته
بکر
باردار
عددی
قربانیان
##راجویی
توتال
الد
یخچال
فرقه
جاسوسی
ايین
##ction
الکساندر
انتن
عقبنشینی
##شع
ساری
فلف
میسر
بارسلونا
سوق
پانزده
فنلاند
سلاحهای
ادام
بهس
لامپ
سناری
ماسک
علامه
##گوار
اموزشهای
##اجی
علمای
##يومی
انبا
ارگ
۱۲۷
##وسه
۱۲۵
عطر
کنت
##se
سردر
نرسیده
بلوغ
مخرب
##پیچ
امیدواری
ماندهاست
ابریشم
فاین
مواز
دهلی
شهروندی
دهندگان
کربلا
میسازند
شانه
براورده
##هره
سوابق
معمار
منحنی
نوشیدن
سس
زیرب
رهن
##رافت
شکستن
##داف
واریز
نشین
مبه
##ذب
##ik
##خاری
معتدل
تدریجی
هیتلر
ناشناخته
طبر
نیل
تفلیس
میلیونی
مجاهدین
بمان
پخته
منز
نوبل
هزاره
گرمی
جریانهای
هیر
میشدهاست
تکذیب
تسنیم
اتاقهای
مشاوران
انحصار
حول
عاق
پایش
##ومند
روحالله
ونزويلا
همگان
هرم
##نواخت
وعدههای
داره
##ian
##ber
حسابهای
فشارهای
تلفنهای
غبار
ازبک
نشدن
ماجراجویی
##کند
مرتکب
خواستههای
فدا
یکسال
واگن
ازادسازی
هریک
رسوم
لوب
داوران
دیواره
افشار
اقبال
شکلات
عکاس
تاجیکستان
سوغ
##حاف
حسی
##ستیکی
مسلم
گازهای
مساجد
##سیری
ترکان
##لاوه
##پول
بپذیر
گلد
زاهد
پوسته
کیسه
برداشتن
تراکتور
معلمان
ناتوانی
دشم
سلولها
لس
تراشه
دیپلماتیک
گرین
پیشینه
##پردازی
میگوییم
##سوزی
تاثیرگذاری
##ort
فرمانروایی
سندرم
عناوین
بیبیسی
سیتی
##لن
معط
پژوهشگر
کربوهیدرات
##pl
##ارو
مناظره
بازده
هخامنشی
افشا
کریس
کمان
قدردانی
##الوگ
انتونی
نمیاید
مشترکان
تلفظ
یحی
##وارههای
##انای
##راست
نیستم
نوروزی
تقریبی
ترسناک
##گراف
##ظری
اشتی
بصری
جماهیر
مرکب
منیزیم
تمایز
فرانک
دشمنی
شطرنج
##one
تهویه
##هاى
اهر
عامه
عروسی
هوم
فرابور
سادهتر
قویتر
پارسیان
نرمافزارهای
گردی
مخابراتی
لپت
کودتای
سرمایههای
باشکوه
شکوف
هدفمند
چم
مستح
توریستی
کیت
##یرا
نشوند
سرانه
##بودن
کانالهای
اکر
قریب
##ps
سالیان
متص
##خیلی
ساختمانها
زعفران
کوم
کارافرینی
ویکتور
۱۸۱
وخ
میگذر
بهرهمند
دلس
کپ
افزاری
##اگر
اصولا
##لیو
حمایتهای
کشتیهای
تنظیمات
دهکده
گفتهاست
شکوه
##ace
گریه
افسر
مصری
کنکور
اصغر
احاط
فرضیه
فاش
دروس
تبریک
بازپرداخت
گیتار
پلیمر
فانت
میتوانستند
محورهای
طالبان
جناب
بلندترین
خلال
شناسه
نکردهاند
برسانند
نیستیم
موقعیتهای
مایه
سالگرد
انا
ادمهای
۱۹۸۸
دزد
نیافت
طیب
پیشبرد
بیمهای
مبدل
ناپل
تقی
ژنو
ترشح
هالیوود
تیل
رول
طلبان
پرفروشترین
لف
میاند
##برای
ریل
برسیم
##لیمی
ارزوی
اردن
مبال
بخشید
سردرد
نشدهاند
ادیان
شاهنش
روحانیون
##تنها
شاهین
صالحی
محرم
مرج
##متری
پارکینگ
عشایر
کرک
بسازد
##رسمی
کهکشان
یادبود
کافه
اسارت
اتوماتیک
ناص
شاهنشاهی
صوفی
زندگ
فیش
ایستاد
اسکناس
سیاستمدار
میدهم
تکثیر
مملکت
شرعی
##اویری
نامزدهای
خاکی
نمیدانم
چگالی
فیلیپ
مزرعه
##مونی
بهنام
اینک
ورق
اسفالت
hd
##بردار
تماشاگران
مبارزات
انات
بیایند
لهجه
منعقد
دانستهاند
##ماع
بیاورید
ردهبندی
تهرانی
سیستمی
تصاویری
علاقهم
صحنههای
کوهی
تساوی
سپاهان
سرگرم
##رسان
بلک
بافتهای
اشپزی
اصولی
۱۹۳۰
ارسالی
کیا
##کره
ایثار
الیاف
برنز
زمانیکه
مبانی
سرهنگ
##سلمین
نشستن
ذره
فلا
بستههای
غیرممکن
نرسید
رش
مجسم
ادمها
##گزار
منعکس
بقایای
نامزدی
کشش
مقال
زادگاه
ارباب
خواهم
کشاورز
توطيه
متقاعد
ارج
اطرافی
ارمنیان
دوز
##اغ
##ازون
اورژ
وبگاه
راهپیمایی
##اعت
نمیگیرد
میگرفتند
کاپیتان
احاطه
الفا
پوشان
غلظت
طن
۱۹۸۶
اشتباهات
سمنان
غیررسمی
مولکولی
نجفی
لاست
بکند
مونی
پاره
بازیابی
بارندگی
باقر
محبت
امل
تانک
##ناکی
##۶۰
میخورند
نزدیکترین
ریالی
پیراهن
شوخی
شناسان
درنظر
خیریه
زانو
بههم
انط
نویسندگی
رابطهای
دقیقتر
موشکهای
بیزانس
##۲۱
su
مشکوک
هزینهای
دخترش
شجاع
فضل
##اچ
##مینگ
فلفل
فرزندش
اورش
الکترو
##ين
خبرهای
قزاقستان
سهگانه
کاظم
گمرکی
متاثر
##کیف
نجومی
ورزشکاران
کادر
##الاسلام
کمکم
لپتاپ
میتون
۱۷۰
اعتدال
تشریف
عازم
بگویند
بدیهی
تفر
##ونیک
ندر
##اها
##مات
خانهای
بازگشایی
##اوات
بکشید
پکن
راهحل
روشنی
##قیمت
##مردان
##یرانی
##اهه
##مداری
##بها
عبدالع
مهران
افزایشی
فیلسوف
خوشح
درامدی
سوری
##رع
نماند
بینظ
پاکسازی
۱۹۷۹
ریک
غری
فان
لپ
لزوما
۱۵۰۰
وصول
##ارید
زاگر
طراحان
میتوانم
##لوک
التح
##وساز
نشانهای
ششمین
کوشش
یور
##ینز
برسید
عذر
انفر
##اکو
##نهایت
##iz
##يوپ
خودی
کودتا
ترانس
ثبتنام
حید
ظروف
غد
کنوان
دانستن
##ردام
##مداد
سپاهیان
##ry
هفتههای
یحیی
خطای
۱۸۳
نظامیان
ایسوس
ملتهای
همایون
پرداختی
شهرستانهای
داوطل
رازی
بنادر
میهمان
مشاهد
##ستقیم
انض
##المه
حومه
##ou
الات
گرجی
اورشلیم
##۸۲
سرب
##ناع
کردهام
لوح
اتهامات
اتفاقا
##ight
تسریع
معاینه
##اورت
موادی
غوا
مطهری
محصولاتی
گواهین
خند
اورند
نهادها
بیسیم
##ستگان
بازیافت
هیچیک
افزودن
کنوانسیون
رایت
##انداران
رینگ
##وو
اردوگاه
شمس
استخر
عجیبی
انگور
یافتهاند
داماد
تندیس
زایمان
افقی
وست
روزنامهنگار
موتورسی
هتلهای
لکه
اقس
حواس
نقاشیهای
شارل
زمینهی
اهنگهای
اسرار
ویزا
بازماند
اکشن
##bc
##غری
ماکس
ادمی
میلیگرم
اقشار
مجامع
وطن
هفتهای
کاسپین
هایشان
or
##سیلی
کنج
ترکمنستان
مصرفکننده
##ore
مهیا
۱۹۴۵
سرسبز
ii
معتاد
اذیت
دکمه
فرابورس
ارزانتر
ساعتی
تکاهنگ
استعمار
سوءاستفاده
درمی
دستکم
علوی
درگیریهای
١٣
##حدود
کنش
نارس
لحظات
بمانند
##ونیا
فرز
##بیان
پایبند
##کسید
بمباران
شیايومی
انار
لینک
نامههای
##ربع
##وژ
بالاست
##جمی
امامی
سوگ
##حسنه
ارکان
فایلهای
همبستگی
انجلس
اندر
##فرستد
غیرنظامی
انفرادی
مییابند
اقساط
معادلات
سکان
باه
اشرف
فیلمهایی
تقسیمبندی
ذاتی
##سهای
فروشندگان
رنگار
انداختن
زبانها
بسط
متغیرهای
تنگه
##ستین
نکاتی
بهینهسازی
##لیان
باورهای
بیاورند
بیتی
فوا
اذربایجانی
##حاق
اسکاتلند
نابر
روحانیت
افسران
##ولای
ونیز
متاب
پیست
جنگنده
عبادت
عهدهدار
افسانهای
اسانتر
##وخ
متوسطه
صرب
حملون
حرام
##دهندگان
اشباع
مسلط
##یران
روال
دیو
مفت
وبلا
جما
وزنه
رب
اظهارنظر
۱۹۸۴
معیارهای
بایر
دیگه
پیشگام
اغازین
##الان
ایالتی
اسیدهای
ناامید
##طح
نباشید
صفویه
مصرفکنندگان
هشتاد
بچ
لام
۱۹۸۲
مسافرتی
ملاحظه
هدر
##ft
شرکتهایی
بپردازید
##پوست
it
طوفان
نمیتوانست
##ابهای
رزمی
تضاد
شایعه
سدیم
سیاستها
معطوف
وری
میوههای
##سواری
##ستن
اشیا
##چهها
رومانی
مشتق
تضمینی
کامپایل
طبیعتا
غیرمستقیم
##یله
قبولی
اکون
عثمان
خانمها
میپ
زار
سعد
##کاس
##منام
نهنگ
##ضایتی
تحلیلگران
اسرايیلی
برشمرد
گورستان
مصوبات
نمودهاست
شیم
##ظور
##اتح
پروندههای
مزاح
ناپدید
محصولی
محوری
ريیسی
ir
گانه
##الملک
ترانههای
بهخوبی
##عارف
عضلانی
سختتر
ادا
گج
ارن
تامل
فریم
##ملی
همگانی
پتاس
##زبورگ
##ترز
منوچ
بررسیها
##پذیرفت
یکنواخت
مقوله
بخورید
مرورگر
درهای
##گرفتن
فعل
اعلامی
وضعیتی
نباشند
سیزده
شاهان
چل
##قال
ورزشهای
بداند
اشور
اوردهاست
زنجیر
زايران
برگهای
مهربان
##جاج
توافقنامه
ببریم
اولویتهای
هلندی
##aw
##۴۰
ترمز
گردهم
مایعات
ندرت
##گور
امازون
گرانی
شبکهای
میوهها
ليون
نویسی
##مس
##ib
باق
حسگر
رفتهاست
مقامهای
ثانویه
dna
شاهی
##جنگ
فرانسیس
منحصربه
پلاسکو
##ایری
##گونهای
##اتو
حملونقل
##لزم
اقلیت
مجاورت
رسیدهاند
اصولگرا
صدام
هوان
رقبای
شاهر
زنانه
مونیخ
بینایی
##کنندگی
انچنان
کوال
۱۹۸۷
اندازهی
اگز
رنگها
عرصههای
پند
پایههای
مستلزم
گشته
گستره
سختافزار
ببند
کشورش
ملایم
میاندازد
ذرت
تبار
همانگونه
نوزادان
داوطلبان
ضای
پاهای
##حاب
محرمانه
پیانو
##یدهاند
اعتصاب
بخواهند
منوچهر
گس
۱۳۵۸
مابقی
دارنده
سایز
زیرمجموعه
سولف
مکات
مستع
لحظهای
میادین
هندسی
میگیریم
##az
تیمور
میبخشد
دستها
هفتگی
امیری
محدودی
##انشهر
راهنما
الیس
گریز
مصارف
سلیمانی
مساعد
طو
##درصد
بپرسید
هموار
مولد
طع
لک
بازخورد
تصحیح
هت
##بیری
##یترانه
فضاپ
##ثال
بهزیستی
باشه
نوشتهاست
۱۹۴۰
خلاص
امضاء
فتحعلی
یزدی
مدیترانه
ازمایشگاهی
ریشههای
پیاپی
##بورد
نوبخت
هرمزگان
##کنندههای
ماساژ
کامیون
واکسن
فتو
متکی
تروریستها
تفاوتی
برامد
توکیو
تناس
احوال
مکالمه
##لوب
توفیق
حصار
گرفتیم
پلاستیکی
صخره
##برانگیز
اتن
کلر
باهم
سرشناس
گوارش
الماس
معناست
شخصا
معتقدم
on
بعث
##ادری
چیزها
افتادن
##زلی
صراحت
۱۹۷۳
##ناف
افتخاری
حات
اسمی
ویژگیها
##صب
قلمداد
شگفتانگیز
مادهای
پاور
##فار
##وتیک
گرسنگی
دورهی
وزرا
۱۳۸۰
نارضایتی
##ec
نهتنها
هدفمندی
##رماه
سحر
هلال
روزنامههای
بیایید
پررنگ
جغرافیای
میروید
بدر
بخشیدن
پستی
کنف
سیال
پد
زرین
##qu
قانع
اسماعی
##خوش
کهنه
میکشند
نمیا
انالیز
##تمام
توربین
وسطی
جنسیت
br
##شوی
##ماق
جانشینی
رخداد
##ازههای
معض
شانزدهم
پسته
دومی
عقلانی
sm
هاف
##ord
بحثهای
عصب
ht
شبیهسازی
گامهای
##یتری
مربیان
رن
##ax
انست
انعقاد
هیجانی
ژانر
تخیلی
انتصاب
مهلت
##ain
مراد
نظرم
هنرپ
فرایندی
##شاء
مهندسان
متعادل
موضوعاتی
##شکر
الزامات
جبر
علما
۱۹۸۵
##ناپذیر
اکونومی
باج
کوبا
##محمد
خج
##ینها
دستان
نسیم
کوره
##طار
معوق
اپلیکیشنهای
تجربهای
هارد
##برید
ملقب
مکانیزم
##ضاح
##ver
روایتی
مقیم
دادهایم
گوشیها
برکنار
he
میکروس
اذرماه
بسکت
کاندیدای
گذران
موضعی
اکثرا
ازبکستان
تبریزی
گردیدهاست
پردازندههای
ظلم
نوی
راستی
مناسبات
ارث
ایک
ios
سهر
غزه
##فول
اهسته
کاملی
سایبری
اونس
فرمودند
شکوفایی
##زیت
##پز
##پرسی
##ah
هفتهی
پنبه
برخوردارند
نیروها
باستانشناسی
ed
اریک
تذکر
اساط
زاگرس
بذر
کارخانههای
##نیاز
امارها
اضطراری
یکصد
##ادرس
سیزدهم
مشتاق
سعادت
منشور
##لوبی
par
##اقعی
۱۹۷۵
مردادماه
مبلغی
واعظی
گوا
##تیو
اشوب
سلیقه
##ثه
سازوکار
چاقی
##امک
ممتاز
مکلف
me
فلو
موی
باخ
درصدد
رونالد
بدو
برخورداری
درمانهای
مقدمات
۳۰۰۰
مریخ
ذات
نکنیم
##فشان
##ure
درگاه
##ختند
میخواستند
ربا
نط
زندگین
چیپ
زمستانی
بلیت
مچ
عزم
باطل
۱۹۷۴
دنده
##یشده
هفدهم
شفا
قوس
یابی
انتها
دگرگونی
##سنگ
حزبی
##سیا
مدد
نمیکنم
ایستگاههای
##پایه
جملات
غیرع
ژنتیک
نژادی
دلف
رنگارنگ
##دو
موصل
قرايت
اطرافیان
##الف
زنبور
بندرعباس
ge
مونت
ماهر
##انسون
قلع
اذری
##کرات
##بخشی
نصیب
کارگزاران
کنگ
شعری
حرفی
سول
##انسی
سیلیک
##ضار
معارف
وقف
جراح
##man
سردبیر
۱۹۶۸
ساختند
خداحاف
انضباط
چن
اسحاق
فرضی
متال
صورتحساب
نخل
اشتیا
بامد
رویترز
جلسهای
مشکی
پروازهای
##باغ
ترم
توییتر
پتاسیم
##کعب
رویار
لبخند
##end
عایق
قرانی
سفره
اتشسوزی
فلان
##کاوی
bo
جانی
شیل
کینگ
##ضم
قبرستان
##گرایانه
گوسفند
صعودی
وگو
بیژن
چاپی
طبرستان
تات
۳۶۰
##سید
##وهان
۱۲۶
اسایش
تعویق
حاد
##تایی
##دست
ایرباس
جایگاهی
نشینی
رایزنی
پشتیبان
درشت
##گیرنده
زرتشت
اگه
کاهشی
محاسباتی
غروب
##قیر
حالات
اکونومیست
یابند
نمیدانند
کرا
##ph
برایم
ادارات
۱۹۶۷
##زو
##خانهها
۱۹۶۹
استیو
ابوالحسن
عرفان
##یافته
هیچوقت
موقعیتی
متفق
بازدیدکنندگان
منطبق
##هنگام
مرگش
پنالتی
انتیاکس
اصناف
شبستان
یعق
مفاد
تجربههای
باکس
دوک
اخوندی
ملحق
تلفیق
هفتمین
مردانه
همدلی
##باتی
رسالت
یافتههای
قاجاری
روزنامهها
پرتغالی
انقبا
ناقص
پوی
##۲۵
دستکاری
ویکی
الیز
رتبهبندی
حشرات
کارگزاری
گواهینامه
##گفته
خیالی
خوردگی
fl
##حان
احسان
پرسنل
حیدر
##ولوشن
حضوری
ولیعهد
تحلیلگر
شانگهای
sy
##ایتد
تریلر
اصحاب
شبها
ازادگان
داوود
سوزی
نکتهای
ذخیرهسازی
##ind
تداب
اسمیت
عار
سالاد
اشعه
یادگار
تزیین
گله
##زدایی
##پوشان
یورش
##رکشی
پیامک
الکتروم
جزییات
شیکا
رویایی
لینوکس
نمیداند
استثنا
ایدز
نتواند
ناسا
تخته
##ust
محرومیت
اورژانس
##تز
بودید
وفادار
##کیفیت
ماهوارهای
##بوس
معنایی
دوستانش
مطبوعاتی
##قاسم
جداسازی
ناخوش
سیاستمداران
##فروش
بیخ
شوش
##وانا
سربازی
##ایتان
کرونا
دکور
معاهده
انتقادی
چینیها
کارفرمای
سادهای
نیسان
غیرفعال
پنجه
براى
##فیقی
۱۲۰۰
۱۳۶۰
سدههای
fr
وزیری
سیلندر
قوام
نمیباشد
##ازار
##فره
پرش
تیمش
مغلوب
مقاطع
مخرو
امتیازات
منچستر
منوی
شمرده
دیپلمات
کرون
بسکتبال
مبتل
تکراری
عزیزان
طاهر
##قانی
بروک
مرم
غذاخ
اثرگذار
##ويی
مرحلهای
##هال
میمانند
مطالبه
##سلا
##یدنی
راکتور
ملکی
کوتاهمدت
جنگلها
حفره
انطور
میکنه
##ايیان
الگوریتمهای
میدار
باکتریها
احراز
بگذاریم
پیری
کباب
##پات
شدگان
ملزم
عبارتاند
۱۹۸۳
شیکاگو
دایی
پسانداز
مغایر
ناکار
پشتوانه
اثارش
۱۹۷۱
بفهم
##امان
شیلی
شتر
##قادی
علایم
سفال
بدنتان
اصلاحطلب
بزنیم
تط
تجربهی
انگلیسیها
انجمنهای
صمیم
جمال
بعداز
##ابهار
سارا
##ai
شکلهای
هاشم
##راحتی
بیکار
واحدها
غیبت
##وسازی
سیستمها
۱۹۷۶
شمارش
فولادی
عرق
اساسنامه
بامداد
سویا
متحمل
شخصیتها
فیلیپین
بینظیر
الجی
سهمی
منه
ترب
رستورانها
##کیم
تقابل
ترکمن
مشهود
دبیرخانه
کنارهگیری
##ینده
منج
صداوس
سفت
##ارتان
اسیاب
##جمعیت
ساعته
نتیجهی
فیفا
اتفاقاتی
۱۹۷۲
نپ
##af
تکنولوژیهای
تعاملات
فواصل
دمشق
تویوتا
مظل
##مام
وسیلهای
پارلمانی
مقصر
فراوری
##۱۰
عنکب
اورت
##باق
هرگاه
##واکی
فلات
رضاشاه
تصمیمی
عکسها
شدهای
ابوم
دقای
ذی
جمهوریخواه
ناخواسته
سرطانی
دقیقهای
رویارویی
ro
مسلما
نوه
مترمکعب
مبهم
پدری
لیکن
فراگیری
##مرانی
رفاهی
۱۷۹
ماهها
##und
گمانه
دوپ
جانور
زمره
استارتاپ
##خواست
گفتههای
مطالبی
امپرا
ندید
##انگی
##لیون
افرینی
مشخصه
وت
اتکا
نسلهای
علاوهبر
تونس
سعدی
##ey
نتیجهای
ماموریتهای
میامدند
خص
دستوری
مینشین
مکانیسم
معترض
لع
بهشدت
انحلال
برپایی
pc
تلس
۵g
موش
نسب
جهر
جعلی
##گاهرت
حسابداری
##pr
باک
ریو
٢٠
شاهکار
##ach
مصدا
کلینتون
##دیت
##ونیسم
حقایق
اپرا
سلطانی
عظمت
میفهم
gr
##مق
ارش
تهمت
##جمهور
دانی
##هان
منظومه
نسخهای
چابهار
##امیکی
اسمانی
خرما
ایکسباکس
مولکولهای
##ans
##are
خشکسالی
حزبالله
##ld
پایهگذاری
##pe
خواهی
۱۳۵۰
تصویربرداری
منتقدین
بشن
اینتل
مظفر
##استه
اسق
قراردادها
رفتهاند
##دها
##تره
عملکردی
##ock
ژر
cod
##ساری
##اداری
حیوانی
محافل
جرات
حباب
##یمه
اتشفشان
so
رانت
معج
چهارده
##ite
##وفق
گشود
تحقیر
شیوهای
مانیتور
سازند
۱۹۷۸
مضمون
هوی
استون
میکشید
پذیرایی
##ost
انعکاس
التحصیل
پاست
##مطالب
بهوسیله
پروسه
دستگاهی
محوریت
بااین
اویل
نیامده
##وزان
بزرگداشت
کاشانی
اشتیاق
تگز
تبعیت
تلاشی
اسکان
##گیرانه
انسجام
##ime
منسوب
اشپزخانه
صدی
اتباع
تجلیل
فراموشی
باس
نامت
مشترکی
۱۹۸۱
شج
عینی
لق
ارزو
واجد
زنانی
دامداری
کاناد
##پسند
##شایی
گرفتگی
صادقی
فرشت
##اسمی
گرامی
وقفه
۱۳۸۲
میپردازیم
حلب
مراکش
حکمرانی
پاسخی
نمیبین
میخوانند
انصار
سختافزاری
قف
##وردان
جاه
ضربات
سرف
گفتگوی
اشام
ضربان
تنا
##اندند
چهاردهم
مستعد
برنامههایی
کتیب
##والی
##ریشی
الج
مجت
##بون
##اته
۱۳۸۳
گوشهای
مقرون
کج
##۲۲
معرفت
شناسنامه
تجارب
کپس
اندیشههای
الیزابت
ناخوشایند
گار
نشوید
محلهای
متخ
واژگان
##يور
##اندا
نزولی
هردو
شال
##یته
##وزوم
کماکان
صوم
##فال
بلوار
پاها
کران
کارخان
داراست
##گويه
##وکو
##مرغ
صفی
بکنید
##ادیم
سازندگی
تفریحات
ناهار
وم
پدرب
عبدالرح
دیکت
گرمایی
پرفروش
##ینهای
##ویید
##ong
##نتیجه
مکتوب
بويینگ
تگزاس
سیری
##اریان
نمایشگاههای
شجاعت
اجزا
##مایید
علاقهمندان
سات
نیستید
مملو
زباله
یکباره
اتص
محلات
ندهد
انقراض
پسند
مادران
فوقانی
عذرخواهی
میدانهای
کوهها
بسزایی
نخواهیم
جادویی
لاستیک
کنده
زیستم
تایپ
هاروارد
اوم
نیکی
قیمتگذاری
تاسف
پایگاههای
سازههای
##رغ
##کنش
قرارگاه
ادویه
سرمایهگذار
پانزدهم
##رند
غلامرضا
موردی
احتساب
ترف
میچر
مصاف
بستهبندی
بکارگیری
بازنشستگان
بخورد
اولا
##ens
هوشمندانه
جستو
اییننامه
عاشورا
پره
روبر
۱۹۷۷
لهستانی
ورشکستگی
ps
ایرج
ناشر
پدرم
اهنگسازی
مسوول
دغدغههای
جماعت
لور
دیار
##نیف
فز
##جههای
##ug
##میع
مبتلایان
##خون
##ویو
توسعهای
غیرن
انسولین
بروزرسانی
جون
شدهاید
سوداوری
##اریهای
نشدند
تصادفات
رکن
مکس
هضم
سرز
پیشت
۱۹۶۴
حامد
سلب
هاب
میساخت
استک
استیضاح
کون
بیاموز
مراسمی
قدرتی
عینک
بهکارگیری
وع
پارتی
کدهای
خواستند
ساکنین
مم
ترمین
کوین
میریزد
##تیم
##فان
##رسون
اقتباس
کیفری
اعتقادات
##۷۰
ازادر
پسری
ادی
حاض
##حیطی
فانتزی
##گاس
شکی
gam
سانسور
تابلو
یکسری
۲۵۰۰
کروبی
چمن
بریز
دیس
##گیرند
دنیاست
خداحافظی
فصول
یوتی
صادرکننده
رمزگذاری
یانگ
داران
تهوع
کفایت
سرکه
ردیابی
مسوولیت
شعاع
پنل
سبکهای
اسفندی
غلامحسین
##اهب
نما
مستعم
خرمشهر
سوغاتی
ستی
##یتو
اود
##فن
میپوش
روانشناس
لنگ
درع
اطلس
بلور
ساعتها
صفت
انکارا
حواشی
ناکام
معضلات
##ختی
رومینگ
نوید
ريیسه
نمیکنیم
کیر
سويدی
اینچنین
زنا
##تیکی
مرسد
تناقض
برخاست
کروز
##ارج
مدیت
جنسیتی
رابین
ارگان
محمدحسین
بهمنظور
مگاوات
##لههای
##بست
##ma
جسمانی
نخواهید
زیستمحیطی
ناخن
نمادین
مارکسی
هندسه
پدیدههای
غذاهایی
رییسجمهور
مربیگری
کاغذی
هک
اسهال
##افقی
##مالک
نیکو
مولفه
##خوری
دولتمردان
بهايی
توهم
بیننده
اهمیتی
سکوی
ایدهال
سرزمینی
صداوسیما
نشاط
حاکمان
ساعتهای
مجلات
کلانشهر
گروگان
استعف
روزنامهنگاری
قشم
معاملهگران
معترضان
جولی
گلها
##act
صمیمی
بدنبال
خلع
نارسایی
شهاب
کارتان
احضار
رادار
ویدیو
بجای
##خط
اجسام
اشارهای
##ath
حاتمی
اینرو
مجموعهی
مطالعاتی
پهلوان
پیادهروی
تپههای
ریم
امثال
انجیل
بیشینه
رزولوشن
نقشههای
سنگها
شعله
بعضیها
اسفندماه
مسيولیتهای
نفی
استیل
##انیها
تورهای
حسابرسی
استیون
زراعی
##فونی
دردسر
لیتری
لاله
##ile
صدد
ترافیکی
نها
ابوالقاسم
کنستان
داشتید
تلاشها
باغات
قاه
##السلطنه
ناموفق
بیمههای
همانجا
##امتی
نیج
سهولت
ناچیز
۱۹۴۸
قاعدگی
لوت
##سلی
##صیر
سایتها
وارده
وصیت
چغ
رایگیری
تقلب
بانی
دیت
درنتیجه
فقره
عزل
نتوانستند
میرفتند
متف
تصاحب
پرجمعیت
##کوپی
رساندند
شرف
##ندو
نساجی
پلان
امادهسازی
بنیادین
نظریات
خودمخت
مجتبی
##عالی
اقلیمی
نمونههایی
انصراف
هراس
۴۵۰
میبردند
۱۳۵۹
##وض
##اموزی
هموط
دیواری
پرداختن
میرسیم
##وجهی
qu
صوت
اینباره
شدیدا
۱۳۷۰
متخلف
دکت
تحقیقی
رشتهای
جغراف
##cl
##ادگان
دادستانی
فرهنگیان
شانزده
##گوس
اینکار
نهادی
دیوارها
روکش
پوشیدن
##فروشد
شاسی
##مزی
معینی
معقول
بازمانده
رشدی
##اسپ
۱۳۷۶
استین
##باش
اطاعت
نابرابری
تیتر
سازان
##دایی
کارشان
لیور
اصطلاحات
مونتاژ
ورزشکار
دکل
اوار
##وندا
حالتهای
هواشناسی
شعارهای
نمودهاند
میث
##یتها
دانشنامه
لغایت
درنهایت
بیح
فیلمسازی
دیداری
۱۹۶۳
عصاره
ناخودا
درخشش
زندگینامه
منش
حبیب
قفس
##تش
منق
جزیر
میبند
لشکرکشی
انزلی
##وینی
##ویک
##کتان
فلج
نوکیا
مفر
##راغ
خصوصیسازی
لیوان
ایستادگی
یاب
##مص
کامپیوترهای
طوایف
فلاح
col
جت
عزاد
##پاد
ماشینی
تبعات
لان
##نمای
کارگاههای
صادرکنندگان
کالب
بنگاهها
گلوب
۱۳۸۱
##ash
دبستان
واپ
دیه
شهریار
وامهای
گردهمایی
صدمه
مشاهدات
۱۰۵
کریسم
رحیم
بایست
مترمربع
۱۹۶۲
کجاست
الزامی
##پرست
پايین
##گاهرتز
##منا
روندی
ابزارها
ضمیم
##پرو
##شدگان
سخنانی
معیشت
فخر
##کبیر
##حید
##ایدر
وحید
خشمگین
بهراحتی
بقعه
موسیقیدان
الکترومغ
هات
##sd
توافقی
##مایه
۱۹۶۶
مورخان
la
##اندار
کمرنگ
رحمانی
نزول
##ماری
فراغ
برجهای
مرسدس
باروری
شیء
بدهم
##کنندهای
##ide
man
براون
ناتو
ازادراه
ممان
ازان
مرخص
تعالی
هشتمین
مطلبی
رومیان
نواختن
##باقر
میانجامد
دیدیم
مسلحانه
پترزبورگ
هاو
تلسکوپ
ناخوداگاه
فریز
نپذیرفت
سروده
رویای
نمیگذ
پاسخگو
سادهترین
میگذاشت
وفاداری
##sc
اجماع
we
اینبار
##ومر
سوژه
عواقب
برانگیز
طبری
مکالم
اشتغالزایی
دخیل
عادلانه
مشی
##فتن
کردها
مقصود
بالاد
پاسخگوی
نامدار
۱۹۶۵
فولکس
ملاک
زمانبندی
امکاناتی
نگاری
##گاد
معلق
ابزی
##واستم
مرکزیت
ملاحظهای
شبهای
فوتب
فرهادی
غواصی
میگیرید
اسکند
gt
فضان
##ix
##الیه
ارتور
عضله
اپراتورها
ربیعی
em
طالب
مشتمل
گشتاور
پیچیدهتر
وصف
قوچ
##سند
بازجویی
مطلوبی
ناشناس
ستم
فلش
راوی
مقدونی
##طبیعی
لویی
برکت
شکو
صدایی
فرهنگهای
پایینترین
مولفههای
شایان
سنند
شرکای
بخشنامه
بیلبورد
حجتالاسلام
مستحکم
##ورف
نکتهی
تندرو
##زادگان
دلا
پاز
بازگردد
شرطی
مارول
استانداری
سلجوقی
دکترا
دیوانه
نظرتان
قطره
عرضهی
خسارات
##ظهر
اجبار
چشمههای
بندهای
پیکان
مبالغ
نرمال
یادشده
رزمند
ایلنا
میخوانید
##شتین
محلههای
توصیههای
عنایت
ماریا
رجوع
##بوج
بیک
کریسمس
cd
منکر
بهبودی
##ادش
بروم
نیفت
بیانی
دیانای
دوقل
۵۰۰۰
##فشانی
عصبانیت
لبنیات
##وادور
##عام
ناش
فهمید
پرستش
وایت
نرخی
inter
میگر
اورانیوم
یونایتد
دعوا
هخامنشیان
##عشی
##دارنده
تعمیم
اعتقادی
یادتان
خواهرش
ژاک
عذ
##سنجی
مختصر
بروجرد
##ial
مغرب
هوس
##خور
##میرد
پسوند
##کوف
تفاهمنامه
متفقین
##ire
باتوجه
نیاورد
اثرگذاری
رایجترین
تداخل
میمون
##لسازی
ناگز
وزنی
مسيلهای
غفلت
بهسر
دستخوش
برپایه
لويیس
تنبیه
##روشند
جابهجایی
محو
فرمت
سوسیالیستی
حبوب
ذیر
۱۳۲۰
پراید
۱۰۱
جادههای
انتزا
جنایی
خوشایند
پوتین
خبرها
##قدس
رحمت
چشمی
حماسه
بطری
زاوی
تراب
شواهدی
بالی
ارایشی
##عهدی
عبری
مخازن
واژههای
سالنهای
مومن
متهمان
شهرام
ساواک
موزههای
عی
عاد
فک
علاقهای
زره
##روزی
نوشیدنیهای
فاسد
دیزنی
##کلای
انگشتان
استار
زیرد
نمیرود
بازگو
مهی
ربطی
cr
ایندهای
امیرکبیر
ذیربط
wh
ین
##dr
واجب
مالکان
نداشتم
ربود
اختصار
قضات
همخوانی
فرسایش
وبلاگ
منافق
فهرستی
وجد
##ایشان
بخرید
۱۳۷۹
جامعهای
قبرس
تهاجمی
فروخت
سناتور
##ich
نامحدود
مزیتهای
نیجریه
##وظ
راهها
تسکین
طلبی
پاشا
##هایت
مردگان
جوجه
توانستیم
۱۹۳۹
تندر
خوارزم
ضایعات
۱۱۵
متنی
اردوی
مفصلی
مکانها
نظامهای
خوشه
انقباض
۱۹۱۸
۱۳۰۰
میکنی
منتظری
دانستند
درصورتی
میگردید
جنجال
##گشته
امگا
زیستشناسی
خلوت
نمیداد
افرینش
ویا
رایانههای
تکف
کاراگاه
مزه
فیلمساز
ماندند
همسایگان
فام
مییافت
نوبه
نمیتوانم
صربستان
غذاخوری
فرهنگستان
تیغ
gl
افشای
داشتهایم
تایوان
پیشرانه
if
ذوال
استمر
۱۲۴
بولی
باشی
ارايهی
ناپليون
زوال
سادات
کوله
##سفر
##ولن
نهفته
متعارف
سکههای
##ازان
##ناط
فقهی
##نتو
دايما
##خوردگی
برانگیخت
ابراهیمی
عفون
متی
اموزههای
فرقی
روزگاری
مقطعی
بتا
##پورت
بهز
اهدای
قانونگذاری
##حث
الکترود
گذاشتهاند
##خواب
عارضه
کارخانجات
خاست
شین
فه
##راژ
دهقان
خیز
محمدباقر
۱۳۷۸
باکتریهای
یعقوب
تدابیر
تبر
##نیان
هجدهم
صلیب
منحصربهفرد
تربیتی
رشید
رنس
نخود
عقاب
توانستهاند
افراط
کیب
هوشنگ
ناتوان
شبی
یب
منحل
پروان
دنیایی
۴۰۰۰
ايمه
بپیوندید
صبا
##زون
تورمی
اراء
تراکتورسازی
ندان
متحدان
عروق
معاویه
نورد
ناط
دیدند
روشهایی
ستونهای
ناهنج
سلجوقیان
بفر
##پان
نیامد
##وشید
هنرستان
مهره
امپراطوری
پشم
بروکس
ابرو
گه
##اکا
موردنیاز
##امیان
جذابی
شاخهای
الحاق
شلوار
##co
موم
موف
پایبندی
میلیاردی
شونده
id
war
فرشته
وجودی
اثرب
##پرستی
سقط
یگان
اعلان
##کرده
تشکلهای
اضافهای
نوشتار
محکومیت
لاغری
مراقبتهای
اسنپدرا
حجاج
الکلی
ایروان
۱۹۴۱
بازرگانان
ناگزیر
مستق
جابجا
بطوری
خبرد
اهنی
درختی
داراییها
نگرانیهای
بلوم
سریعترین
کارفرمایان
بهگونهای
طرفه
۱۹۵۸
وثی
##ذه
رویش
ایديولوژی
لوبیا
قاهره
پارسال
##ff
مصون
##راضی
نیو
فرح
##نگاران
عضوی
لرد
##مید
کنه
ترقی
صفات
منحص
افتتاحیه
لیورپول
شیک
##ایای
املی
معانی
فصلهای
فاکس
مخف
مطابقت
تقاطع
##غیان
پیوستند
موتورسیکلت
##me
الایند
حضورش
usb
صید
نزا
کوز
##توس
سالهاست
کوفه
##ick
رکاب
دستش
قرارگیری
ادامهی
سرمایهای
##وکی
##اهر
##وما
بخشد
افترا
مارش
زدایی
استعفای
سلف
سنجی
##لینگ
##uc
##ودور
علیاک
##int
شبکهها
##دینگ
عصرخودرو
منطقهی
منحرف
حفاظ
توقع
تطابق
##جید
##احمد
ناجا
برجستهترین
وفات
رزمندگان
ساب
##ارند
##ریفی
##کات
فراه
گراد
ایی
مشرف
اشتب
۱۹۶۱
jo
لنین
ترجم
مذاهب
پدیدهای
نارا
سمفونی
بههمراه
صرافی
سنندج
تحلیف
پژوهشکده
##use
تسلیحات
##بدی
پیشه
فرشتگان
ضمیمه
رجایی
معن
روزافز
نمیکنید
سیگنالهای
دگرگون
غیرنفتی
تعاری
تماشاگر
مختصات
یوتیوب
تذ
چتر
##چهی
۱۸۲
متابولی
مصداق
شهریورماه
هرکس
مدیون
خشت
نیوزی
۱۰۹
میرسانند
امامت
جلوتر
بحرانهای
الفبای
منو
الای
تابعی
چربیهای
جوزف
پستان
بودهایم
تلگراف
ناپاید
بنگل
دشتی
بسازند
بگ
کثی
میپیوند
جنرال
گوارشی
نظریههای
dr
کارون
قابلتوجه
۱۳۷۵
تمایلی
##دریج
کنفدراسیون
بب
ادای
صومعه
استالین
کشیش
میلیمتری
شنوایی
مستندات
تشییع
شامپ
مشرق
برکناری
##راپی
اعلامیه
پهلو
خلاقانه
متناوب
ولو
واکنشی
سرنگون
پرخاش
ولت
بپردازیم
خویشا
تشیع
##ناور
کاترین
خلیل
هرز
اهتمام
مخارج
مرزها
قیاس
صفحهای
##وغ
##ارداشت
##ومن
اربع
اجناس
جعل
اقیانوسی
کافيین
کلامی
ریاضیدان
اشتباهی
سزار
##خدا
##لیکس
فرخ
نگاشته
پارکهای
سپردهگذاران
ارزشمندی
معصوم
میفر
رویا
سودمند
دوستش
هواپیماها
بازگرداندن
هنج
بازبینی
هدفی
۱۲۳
جاوا
سیمای
اصطلاحا
پراکندگی
استمرار
البرت
قزل
سرامیک
##امیزی
کارفرما
زام
توازن
البانی
اپدیت
##وستون
سخنران
دردناک
۱۳۴۰
ناامیدی
باکیفیت
الر
نمادی
حرفها
۱۹۵۶
کرواسی
##وطی
نمایشهای
لیبرال
اناتولی
اشوری
int
اسطوره
حیدری
سوگند
پلنگ
اموخته
ساکت
رنسانس
##رکاران
بنفش
گلخانهای
سپردهها
ادراک
کتابخانههای
##ورز
##ولار
##سیان
کراس
متب
اتشکده
اختر
طوریکه
بمانید
ضمنا
فید
لوس
##شاند
زیرین
کوپ
منازل
##تیپ
فرمانداری
بومیان
تخممرغ
دماوند
ممانعت
پیگیر
ارواح
نیروگاههای
اگاهانه
سرعتی
مصادی
سریعا
گزینش
۱۳۶۸
عروقی
شایعترین
صلیبیون
دپ
فوک
یقین
##افزار
بارگذاری
بزرگتری
ژنوم
لويی
بازماندگان
لری
##مادی
تحکیم
محدودیتها
طناب
زمینهها
نداشتیم
نارنجی
شایستگی
کلاهبرداری
مابین
ab
انر
نشانهها
شورشیان
کرایه
دورانی
رسیدیم
عوام
تابعیت
شریعتی
استادیوم
جانسون
ابد
عمیقی
پنهانی
پرستاری
عرفانی
الهه
ماف
بازهم
جانوری
خدمه
رفتارها
خردادماه
رویکردهای
نیایش
پیغام
بنایی
جاود
تایم
محتمل
ادعاهای
نازل
جواهر
زیرک
سپاس
صدق
سریالهای
اونها
##میلیون
عبارات
نجی
سیمرغ
##یدها
گوت
موفقترین
معصومه
قفسه
پود
##مم
مامون
##طلوب
محفظه
هکر
یکسانی
تنشهای
برجای
دراورده
پیشکس
بانوی
اکسفورد
۷۵۰
میداشت
##اسو
جامعهشناسی
##led
منفجر
el
ذین
فاتح
##ابعی
موها
##گذر
پلات
تازهترین
بردهاند
مجوزهای
انطباق
بصره
نهی
راجر
مناف
دفترچه
دفعات
مندر
##اخته
۱۳۵۶
میرویم
هفده
سیکل
ارگانیک
استری
##سیها
مسن
پروس
درگیریها
فشاری
ساقه
پورش
##جلس
پوستر
تشریفات
رقبا
بستنی
##گارت
میطلب
پستهای
تابلوی
مینوشت
بدلیل
زمینشناسی
نزدیکان
موفقی
بکنند
استور
اظهارداشت
کشتیرانی
ولادیم
ناطق
##نوع
رخت
عیب
##طف
##up
##ازد
بازگشته
میانجی
ستارهای
هتلها
نامزدها
تومور
علیاکبر
اسکلت
نفرت
ذوق
نینت
##cc
الحسنه
سرای
نهمین
مادرم
نوشتهاند
نمانده
پروست
صنف
کاظمی
##ary
جلوههای
رشتهها
##پوستان
اسنپدراگون
زان
باط
ویکتوریا
##تس
##ضوی
##دیس
تیمها
لیز
هنگامیکه
پیشکسوت
بشریت
پارامترهای
بودایی
پرین
##بانک
مخفیانه
خودت
دیفران
جانباز
اسمارت
۱۹۱۹
##pu
نقرهای
دارندگان
صرفهجویی
لحن
ماهیگیری
مدافعان
بنویسید
پرکار
مصادف
بازپس
پارهای
بازگشتی
دسر
##۱۱
همتای
##اردو
##لافی
نامطلوب
گرمسیری
دزدی
##خال
شوراهای
صداقت
پرتقال
ویدیویی
اساطیر
شراب
عفونتهای
##جوان
##ندگانی
زندگیاش
کریستال
عیار
پابر
کوری
خارق
۱۹۴۷
برو
تمه
بدهکار
۱۷۸
داستانها
چراغهای
کاروانسرا
الزای
ایسل
وسواس
تهدیدات
##نظام
بردارید
کانادایی
بریزید
قاط
لوی
ني
یال
باغی
بخشیده
comp
do
نین
ولس
پیل
##وازی
بیات
متض
تزيینات
##رمان
مکملهای
##نما
سریلان
پناهگاه
کریستین
تظاهر
جنجالی
اصابت
ترکها
۱۹۴۴
بنیانگذاران
نیوزیلند
میعان
تحمیلی
اکوسی
چشمها
درسال
##ادم
اسرایی
ایپد
اغوش
عفو
رفی
##ies
##اردی
تايید
لیلا
مبنا
اشکانی
ماسه
شوهرش
فرن
شناختهشده
خالد
##وامد
اندوه
رفتیم
نگاشت
کرانه
۱۹۵۴
جرمی
خوشحالی
بیلی
اشفتگی
جادهها
اربعین
no
کورت
##همه
عملیاتهای
##زاینده
پیمانکاران
amd
منسجم
پوشانده
میدارند
##فرض
ابوع
##رايی
مولانا
جود
بودجهای
##چیزی
جدیت
حرمت
مگاب
دویست
ندیده
یان
الش
کتابهایی
موفقیتامیز
طولانیتر
بشوند
گرانقیمت
متخصصین
دزفول
مصادیق
تایر
حیرت
##امیه
مختار
مطالعهای
لطفا
new
بعدازظهر
##sa
##گذشت
حوزهها
گستردهتر
فسف
##سوی
کرمانی
انرژیهای
تسلا
بخواند
دیماه
نمیخواهد
ریتم
تونی
##رههای
خوشی
پروازی
دریچه
۱۹۱۷
فزاینده
مهرداد
رویکردی
کامپوز
روشنفکران
دندانهای
بون
جولای
پلیم
اینقدر
دهمین
سنتهای
لازمه
بینهایت
بتمن
عروسک
برسانید
اتصالات
حوص
هاپ
##خورده
باف
ویرجین
انه
ولادیمیر
oz
فورا
##ریض
اتشفشانی
استثنایی
رانده
برگردد
نوادگان
اتشن
بارانی
خطری
۲۲۰
گرایشهای
الزایمر
mod
##گس
توضیحاتی
نمیکردند
wor
جهات
مدف
پایانه
##پشت
##ect
##کیان
دردهای
مروارید
سروش
##سیته
سهامی
میشل
ادر
پستانداران
۱۳۷۷
کای
چارهای
##شانی
بهاء
بلد
ارزشها
سيوال
یبوست
one
غض
یکس
شهرهایی
باراک
خرابی
هزینهی
پولهای
عود
##چگی
توام
دوجانبه
حکمی
مجموعا
وگر
##فتان
مسال
سوخته
مدیری
ناکامی
تعاریف
خفیف
کله
##جواد
معجزه
خاوری
استبد
گرای
هیوند
رنگین
ولز
لولههای
یگانه
##حمد
##گرها
اپیز
چشمهای
جذابترین
نینتندو
##اروس
توي
معال
##تاج
ستارههای
دیتا
##sh
منشی
مسطح
روزبه
سایرین
ترانزیت
فیت
وود
چانه
##لندی
##ment
علف
علاء
فرزندتان
مزایده
لطی
چرم
##لد
منی
تصنیف
۱۹۴۶
بکشند
جواهرات
پداف
##بعدی
دویدن
رحیمی
##وون
##۹۰
##بریج
کارافرینان
جیمی
ابوب
##زدن
مهمانی
جشنوارههای
فرستادن
گنجانده
##ونم
##روپ
باله
##ربازار
تورن
##ung
گریخت
هوشیاری
بایرن
زشت
قور
##ومان
نیرومند
متمایل
القاعده
##فتری
کیست
طولانیترین
سرزنش
رگهای
نگیرد
##عال
مجالس
اسبق
##ابک
بیگان
مشوق
علاي
مفاصل
جریانی
سندی
قاسمی
کشنده
اجس
رخد
عصربازار
طولی
غزل
##اعی
##قاق
فروشگاهها
ازادانه
همکارانش
ذینفع
car
ژورن
##روک
کشیدند
قرقی
جنازه
طرفهای
ماندگاری
قیر
چمدان
میفرم
سالروز
تاجر
پایهای
##اوران
شفاهی
انتیبی
میکردهاند
بذ
سودی
نشن
بانکوک
شهرستانها
تناسلی
اجری
۱۹۵۹
زیرساختها
محصور
میزدند
عزاداری
طهم
##ss
اوستا
مستوفی
دریان
روغنی
فازهای
هنرپیشه
قاجاریه
بقا
امشب
۱۰۸
دوستداران
مستعار
رونالدو
بازیسازی
اعضاء
##نانی
لول
هاید
کوتاهتر
پیچیدهای
غدد
خسر
##اتون
اوان
قو
خانهاش
پارا
ماندهاند
ورد
##ium
باوجود
مدلسازی
پیشفرض
##لسون
موکول
خانهی
همسرتان
برهان
وثیقه
مداری
مجته
بیمارستانها
روزافزون
##ضعف
بیروت
بواس
بوکس
نمیدانیم
##روید
##روين
##یسون
کنترلی
##اریا
هرود
نامعل
فیض
codice
تمهید
##ارزش
##زیز
اتک
گلدن
سرل
زرتشتیان
sw
عادات
اتنا
اختیاری
بشار
##fc
۱۹۵۷
بص
نماییم
۱۳۶۷
نخستوزیری
نیتروژن
سرسخت
مرحلهی
##خواری
دربی
تماما
انگونه
سنتز
حماسی
##کینگ
رویت
معماران
کمیاب
تیرويید
محتویات
هموطنان
##عید
میفرستد
مدر
تبخیر
شهرداریها
گد
پولشویی
مانور
باقری
ابوبکر
بیعت
سراز
گلزنی
۱۷۷
دیجیک
شگفتی
منوط
##لاحی
##نجر
منظره
سوختگی
میعانات
##پیش
میرح
سالار
متروی
فنون
گردند
نامهها
فیزیکدان
تندی
الص
همهچیز
خراسانی
##بعی
قرعه
اعتراضی
زیباییهای
پروژهای
نارگیل
کوهنوردی
گان
دادسرای
ابط
حیطه
داوطلبانه
زمز
عامی
کاد
رویال
کوي
کیفر
قرنها
دمکرات
بیداری
صادقانه
گریبان
بروجردی
##شیم
##اندی
مسمومیت
زندگیتان
حلی
پوز
دانشامو
اردوغان
زید
##جند
اخوان
شرم
دامنههای
فح
محد
هیبر
۱۰۴
صداهای
خالق
##ult
فاکتورهای
مصادره
غیرعادی
فراغت
راکت
جنبشهای
هاد
گلب
گسل
##زهای
ماشینها
۱۹۴۲
۱۹۴۹
۱۹۵۳
خانوارهای
غافلگیر
ولسوالی
ببخش
##نوس
##ee
انشع
##اریخ
اسلو
##ish
ترمینال
اکوسیستم
خاستگاه
##موس
##da
همگام
توکلی
اوین
هیي
##سلان
۱۹۵۵
کارلوس
ناراضی
بها
جنایات
سپر
مدفوع
##cp
##طیل
نقوش
مکزی
خارجیها
وگرنه
عکسی
نثر
##لیا
جنتی
خارش
طبقاتی
کلانتری
دستورالعملهای
##for
موجی
سیاوش
غیرمت
رابطهی
موقتی
اشکانیان
بیاعت
زحمات
امانت
میخواستم
جدای
ناامنی
جریانات
بشناسید
##خس
محراب
نرفت
ردههای
##ational
تریب
طلوع
قدیمیتر
بوستان
حلقههای
net
شاپ
لابی
کردهبود
فرستنده
زودرس
وکالت
لرزه
بجز
زایی
چاره
معرف
اجداد
رفتوامد
دیدنیهای
باهوش
اپیزود
صاب
پشته
##فور
برگه
سبکی
مستث
نقدهای
شریعتمداری
وند
پارت
##لوان
##یمت
امست
موعد
تکاملی
۷۰۲۰
کیبورد
شیری
بریده
الو
ازمایشها
##لرزه
استکبار
برز
##گیران
چهرهای
۱۳۳۲
تنه
سموم
فرمانروای
ictna
اشنای
منصفانه
توپخانه
مصدوم
مندی
هرحال
جشنهای
عتی
##راکی
##میک
جوهر
کاستی
کودکانی
صندوقها
ictn
الدوله
لود
گوهر
لیستی
کریستی
۸۲۸۲
میگویید
تعرفههای
حبوبات
des
سرپوش
گرمایش
پژوهشگاه
پیمانکار
منفرد
ozv
ربع
مجرد
گروههایی
گیج
کیان
##پیامک
۵پیامک
پلهای
زیستگاه
دیاکسید
انباشته
بهزاد
ناار
ندادند
پژوهشها
دفعه
نامشخص
نجیب
لیک
نتیجهگیری
ویروسی
مراتع
گستردگی
جمعبندی
پورشه
ser
##کرب
انتهایی
##ترینگ
جزیرهای
##کنندهها
۱۷۵
سوالاتی
مرتبسازی
شرب
لاین
##جور
۱۹۰۰
اشفته
پرورد
واردکنندگان
خواهران
۱۳۴۲
الفرد
##ناز
##گارد
سرمایهداری
انعطافپذیری
رجب
کبود
برگردان
##واستی
##یمیایی
کاذب
##طنط
اطلاعیه
##وستر
گرانش
عماد
ادوار
گیگابایتی
نیافته
اشیای
دوق
یونانیان
##دون
##۲۴
شدهایم
مادهی
تشکل
مازندرانی
تنیس
صخر
##زمانی
##ریقی
قسطنط
مصدومیت
کلینیک
کبوتر
لرزش
ربوده
cn
##ارگاد
خودروهایی
مکانیز
پناهندگان
##یسه
ترین
نفرات
سیدنی
عمرش
res
بپذیرد
##مخ
مانعی
مختلط
۱۳۵۴
عفونی
افتخارات
عذاب
av
پیشانی
مهمانان
جراي
سکو
##si
بافی
##هابی
اتلان
پروف
سودان
البومهای
##ith
المانیها
ضخیم
اقتصاددانان
غده
زیاده
##هنر
لیلی
اشکالات
روستاییان
رقی
سمین
##ae
مبحث
منصب
کلیدهای
ماجراهای
مستمری
اشامیدنی
١٠
نوتر
۲۴۰
تقسیمات
قتلعام
گمشده
۱۹۳۳
علاقمند
استعدادهای
اسنادی
بویر
##یدو
درصورت
بیهوشی
فایده
بروکسل
##اکان
مصمم
خیار
۱۲۱
افزودند
۱۹۴۳
مندرج
یل
قربان
اقسام
جاهایی
پذیرای
۱۹۳۶
##ier
##ادیان
ماخ
۱۴۰۰
##sp
##گرامی
شرع
نبودهاست
مجلسی
احادی
تعاملی
ویژگیهایی
پرچمداران
باختری
##طرفه
زراعت
لاس
##پایان
##غانی
##شتاین
افلاط
مثابه
##سالاری
ابوالف
ناشران
op
##شتن
تحریف
خیام
##وکا
کرامت
۱۳۵۵
عمیقتر
محضر
ناظ
##ory
چهارمحال
ایدهها
گلوکز
معافیت
خوشنویسی
##همین
نیوتن
تعارض
قوانینی
دبلیو
##sm
الپ
نقشافرینی
پادگان
نداشتهاند
قسطنطنیه
عاج
##ادلی
##ence
دامپزشکی
مسابقهای
اندازههای
پیوندهای
ناساز
سوت
##وپی
قسمتهایی
رودخانههای
وسوسه
بازگرداند
بیندازد
##ناطیس
جیر
استیک
وقتها
مذاکراتی
پروتيینهای
کاسه
زرهی
جونز
استریت
سررس
توانمندیهای
دارن
شرکتکنندگان
قدرتمندی
مشخصا
۱۳۷۳
موتوری
مضا
##امهای
اسکل
##شکاری
##تاثیر
شکستگی
خوابیدن
فرصتها
۱۹۵۲
سیلیکون
سکس
لگ
##لیتی
سفرتان
خونین
کشتیها
زدهاند
۱۳۶۹
تقلبی
تشنج
سریلانکا
قرمزی
##وسا
ساختهاند
طاهری
زب
##تقی
درویش
بیولوژیکی
امریکاست
۱۳۵۳
۱۳۴۸
##بساط
فوقالعادهای
جوز
خلف
##کلا
بلخ
امستردام
چیره
انبساط
##اتک
کارگیری
جهنم
نیازها
سودهای
دستورات
۱۳۶۵
سکنه
میچ
سفارشی
خوانندگی
str
یکپارچگی
red
تمس
##مکننده
گونهها
ارمانهای
مکالمات
##فین
منابعی
بیضایی
استفراغ
دورتر
تخل
پاسخهای
زیم
##ونده
##افته
موتورز
کمونیستی
قح
مدلی
مستضعف
کرت
۶۵۰
برامده
درخواستهای
امتیازی
امیخته
اسکو
##اتیو
##قدرت
نمادها
بته
بارت
کششی
احمر
تجمیع
##خرید
##بیک
۱۸۰۰
۱۱۸
فرزندانش
خاکستر
موبایلی
رین
##سوار
انوش
متان
جهادی
بالگرد
وارنا
نادری
ندهند
انتیاکسیدان
میزی
ادیب
##اکری
پاتر
##sl
ساختگی
پاول
گرانتر
۱۹۲۹
محسوس
pre
ابا
زوای
##۳۳
دلم
محسنی
نحوهی
اتمسفر
اعی
گوان
##چندان
##۹۹
کوپر
##سلطان
ib
نکش
مرمر
گاهشماری
گلایه
اسپین
مولوی
گذرگاه
۱۳۷۲
غریبه
داگ
بزودی
##یداشت
۱۳۳۰
لیمو
یخی
کارمزد
##منط
رادیکال
دخانی
حشره
اسقف
جغرافیا
قش
اینحال
صحرای
##خواهان
کتبی
امتناع
معروفی
صندلیهای
##فرا
##صاد
همسرم
حداکثری
تفکرات
هیم
متراکم
تکالیف
تلفیقی
##ويیل
بیتوجهی
پانصد
امیزی
نصرالله
فاینانس
هوانوردی
مستقیمی
دیفرانسیل
سرازیر
##داشتن
##ومنین
دانا
بنت
مجسمههای
شوق
لایت
میگشت
##ورزی
اینست
ترابری
بیمارستانی
۱۹۱۴
وارث
میپند
پوس
##انان
دستمال
مجاری
گفتهی
فراخوانی
چالشها
بیسابقه
زناشویی
پروین
##گردید
مستطیل
همسران
قطعهسازان
مودی
کرات
##یلت
##بیلی
بلوتو
شورشی
رایان
ویتامینها
تعمیرات
اویزان
فرزندی
نمیشناس
##ree
سخنرانیهای
لوم
نیکول
##بیاس
انتخابهای
استانداردها
مضاعف
خیس
اصولگرایی
برمید
تیتانیوم
ماژول
دوبله
هوندا
##eg
سبزوار
استثنای
چاقو
پاف
خوردند
درازمدت
سرنشینان
بهسازی
##راط
علیزاده
همسو
اژدها
اسفندیار
جاست
لاهی
بهایی
سواره
صحرا
سهامدار
کلیساهای
موافقتنامه
رسانید
افسانههای
مخفف
##سترن
کپسول
##گمی
امینی
هرتز
دادرسی
اتلاف
اتریشی
بلوط
شاهرود
##anc
مفیدی
شات
نشات
غزنوی
فست
نگری
وبا
کارامدی
چالوس
##خوابی
غرور
نزاع
هیبریدی
سانس
##کوک
##اختند
افتابی
مذاب
ارنست
میطلبد
شمای
هویج
##بندان
کارولین
بیث
##فعل
##ical
دوچرخهسواری
لفظ
مرخصی
حوصله
بپوش
خوانی
مناره
##وکل
سوزش
##ull
سیتروين
استو
اسیدی
سرفه
نوب
##وزیسیون
هجده
بازوی
میکروسکوپ
حب
##ابن
##وتوپ
قویترین
خواندند
ضلعی
قرا
چنگی
الخ
سانحه
کنستانتین
وزش
۱۱۴
امیزش
دلی
##قند
##عون
فعالیتهایی
اسدالله
شاهرخ
##صدا
##انها
انتح
تابعه
رویدادها
اموختن
کروموزوم
موازات
توبه
##امپور
نهاوند
گوگرد
مدلها
پوششی
بسپار
پناهنده
sl
مومی
ایرلندی
شهرزاد
ریختن
تروریست
۱۳۴۷
یوگا
قشق
بخارا
هوادار
تیراژ
دیرینه
بیمارستانهای
ایالتهای
mo
not
##صاف
بیف
ماهیهای
ماهیچه
رمانتیک
##نها
زمینلرزه
شکارچی
##وفر
##وبری
تبل
##رانهای
بگیرم
تکنیکی
جلالی
اندامهای
لنگر
##land
ملودی
سرمایهگذاریهای
تماشایی
خلاء
راهکارهایی
اریایی
شنی
لانه
والم
کمبریج
دانشی
بااینحال
بنگلادش
my
ممی
##۳۵
##ختگی
مواقعی
ایرلاین
##بافی
##ert
نوشتاری
فارسروید
فسفر
انفلوان
سوزان
تکههای
جهتگیری
جمجمه
منصوریان
فرانسویها
چرخهای
جرايم
dis
نست
##خم
میله
پیشی
۱۳۷۴
۱۹۳۷
استراتژیهای
نوازندگی
سومی
سمر
##بکس
##پلی
بروس
اسکر
محمدتقی
مزایا
دکوراسیون
بمبيی
حصول
عموی
گلپای
ملتها
۱۹۳۸
منافقین
هیوندای
بیطرف
پولدار
فاصلهی
ارسطو
همدانی
بقی
درز
تملک
مهندسین
۱۳۵۲
افزارهای
##ظره
سالمندان
دستههای
اخباری
##eng
سرداران
##ata
یادداشتی
cor
نویز
##ايیل
مارکس
اسکای
۱۳۵۱
دنیل
زندگیشان
خدایی
جدیتر
اشکالی
یزدگرد
نگذار
نوکل
داشتنی
انتقالات
تهدیدی
کنسرسی
برایان
دوحه
۱۰۶
فرایندها
ازمونهای
کارخانهها
قدرتمندترین
وزارتخانهها
ویلیامز
sk
قمر
##نهر
۱۳۷۱
۱۳۴۹
گفتوگوی
کثیف
شجریان
هرودوت
وکار
کوثر
##سالار
فلک
اتاقها
نوازندگان
طار
اسیبی
محققین
پلاسما
سوان
ورا
بیشاز
بیرجند
ایسلند
پیوندی
اقامتگاه
خانوارها
باقیماند
##پاش
##لفه
تهیهکنندگی
گذاریهای
۱۳۶۲
تریلیون
دایرهای
عبدالعزیز
مفق
سالجاری
وفور
اجساد
حراج
نشی
دههی
سیصد
زمانه
جلویی
ماهیان
۱۹۲۱
ag
کردهای
مهربانی
رجال
کبدی
مشروطیت
##vel
##ازگی
جمل
اجیل
پرور
ورم
میافتند
##یدرضا
کشمکش
کوالال
میرحسین
ضدا
والد
##حا
روبات
داروسازی
چهارچوب
محدودیتی
پترو
برگرداند
انتزاعی
اعماق
حوضه
اشتراکگذاری
مناقشه
ضعیفتر
صخرههای
ایو
ولیکن
۱۱۱
زودهنگام
بوسنی
نیاید
جدیدتر
پیداست
قالبهای
بخشش
واتس
میپرداختند
فداکاری
ابوالفضل
##گرافی
اینصورت
##ونیم
کلیپ
فرمهای
واقعیتهای
پدربزرگ
صوری
ناسیون
مهمات
پیشنهادهای
گما
بابی
##ربری
انصاف
طوسی
##انیم
باهنر
نصیر
منصرف
خوشبختی
چو
##قهر
بهشکل
##سیلهای
همهپرسی
بعلاوه
۱۳۶۱
مشروعیت
منزله
##ههایش
##نیوز
رسوایی
جنگها
کاوه
##پذیرند
لباسها
##گیلویه
کیروش
خت
بلندتر
الکترومغناطیسی
ویرجینیا
تیک
۵۵۰
استارا
##هروی
اسپرم
##زمینه
مهاجمان
تکفیری
سلیم
طبع
پسابر
بنظر
شیطانی
شبکهی
##اهمیت
هندوانه
میبینم
پراگ
خودمختار
انشعاب
دوقطبی
per
حمد
سیاستی
##پروری
جاسوس
گویای
ریختهگری
مهدوی
الیاژهای
مرموز
مظلوم
ev
کینه
یوز
##ودین
ویلا
تحتتاثیر
محیطزیست
زوجین
اکادمیک
معابر
فیلترینگ
ارتکاب
زبانشناسی
المسلمین
دیرباز
همسایگی
قریه
لاه
یوان
میخو
##بینانه
بیمهها
الکترونی
استخدامی
هرکسی
لسان
میکروف
مغولان
معتقدیم
تاشو
میشوم
توحید
سفرنامه
معلول
۱۹۵۱
cm
پنت
##زیر
کنندهای
نیرویی
انگیزههای
صغیر
ارسلان
کتابش
گیربکس
مادها
دشتهای
منفعت
صیانت
مقتدر
cont
صل
لید
##uk
بسیجی
میشناسیم
section
سرماخوردگی
موریس
دانهها
زاک
نواب
##متان
محمدجواد
نهادینه
رودخانهها
انباشت
##یهی
##وبین
صفویان
mic
محموله
سوزن
بمبگذاری
ابهامات
mi
رپ
##کریم
##قاب
##ts
##ba
تحولی
##وتراپی
تجسم
۱۱۷
۱۶۵
مسافربری
دوازدهمین
گاردین
سرنگونی
زاهدان
بواسطه
fo
gal
##اهل
اتمهای
فعالی
##وکسی
بهعلاوه
جابهجا
ملاحظات
داین
رباط
همگرایی
##اریها
سهل
لذی
بسا
الگویی
دیدگاهها
تداعی
پروستات
اسراییل
کهگیلویه
##یدنت
داود
حسادت
وحشتناک
نمایانگر
mon
دلالت
##زینگ
تعیینکننده
گذرنامه
ابادانی
موزهی
برسانیم
احادیث
فوران
ساختوساز
##سلم
کاشته
۲۳۰
تلویزیونهای
##ade
محفوظ
میگذراند
رجی
فطر
##۲۶
##همندی
چندگانه
##ربندی
فاطمی
شوشتر
##old
روبروی
gu
met
گوشتی
قطعیت
میکردهاست
اریا
ایثارگران
۴k
خودکف
بناها
##بلند
زیربنایی
نشت
روباه
تنبا
باشگاهی
##وکاری
نیمکت
نشستهای
تجدیدنظر
۲۰۶
تقدم
##گردانی
خریدهای
اپلیکیشنها
دزدان
۱۷۶
ویديوی
شیشههای
گلف
بهن
خودنمایی
علایق
هوشمندی
ناتمام
کانی
##ple
##فتند
دیالوگ
سرگی
بینش
نشانههایی
برت
نوظه
مرکبات
۱۰۷
نمیگو
ولایتی
متعال
پانک
چاههای
رند
واتر
##چینی
بعدتر
کاریک
مناسبتر
مشارکتی
رمانهای
شوراها
وانت
ژرف
##ملهای
نشستی
چارلی
هامبورگ
گامی
##کوب
##رست
الملک
خودکفایی
ثامن
شاکی
کوس
یزید
مدارهای
راهرو
روغنهای
سعودیها
نامنظم
er
میانس
انتگر
شیوهی
فقرات
ناحیهای
بوکان
۱۹۳۲
مجرای
پروتون
۱۰۳
سنگر
سختترین
انسداد
رتبههای
داروهایی
ویروسها
لطمه
بردارند
نازیها
معایب
عاری
غلی
نقی
##کاک
##الیم
روت
##لاع
##کلین
اصلاحی
برانکو
فامیل
سررسید
فند
جایگاههای
اجراهای
tur
##ضلی
##چن
حوزهی
زیرمجموع
توانمندسازی
بهزودی
ایندی
افول
اندی
فردای
نتوانند
۱۹۳۵
##خرهای
پرستار
متناظر
اسماعیلی
کوالالامپور
ورس
بهانهای
ازاین
##انسازی
پرسر
رادیک
پویایی
بوستون
پالم
احمق
نرود
۱۹۳۴
هاى
پدافند
غارهای
فیب
مبین
مندان
##يول
منتسب
اکواری
مرگبار
جستوجو
تیس
نهر
##يود
تقارن
bbc
##بنیان
میجنگ
ارتد
اتوبوسهای
بافته
##ردهی
نمیم
تورنتو
کالبد
##فورم
##ml
غیرطبیعی
معاونان
رزیدنت
گمراه
عبدالحسین
گنجینه
کیمیا
برندگان
اندو
حجمی
بقایی
فاصلهای
بیگانگان
پروردگار
ناف
ماورا
شاملو
##olog
پروتيینها
سردرگمی
غرفه
##گواری
لیپ
ذهنتان
کمپانیهای
برزیلی
##کست
درجات
گرههای
۱۳۴۶
طغیان
##گروه
بهبه
افرید
واج
اپرای
کامران
موجودیت
پدران
اسپری
هلیکوپ
بفروشد
##حلی
شدنی
بیانداز
خوابی
روانشناختی
گول
##ثق
نواور
۱۳۶۴
استخوانها
اثربخشی
##میت
بهش
##سیوس
خوانساری
حقوقدان
صورتیکه
فاشی
نگیر
متذکر
اشا
اندره
خطاهای
گوگ
قطری
۲۵۶
بسنده
##دادن
الکتریک
بیندازید
انتحاری
min
##برده
طبعا
صدراع
حرکتهای
ماهیانه
##طلبی
عاقبت
تیلور
میفرماید
برایمان
ارضی
بدنش
اذهان
##ition
بازیکنی
درمیا
پذیرفتن
یوگسلا
عاقل
حفاظتی
خانی
هانس
یاهو
##کشهای
##وزد
دادگاههای
مثالی
اسمش
عریض
ژنهای
##۲۳
##ازهای
ملوان
کروی
ستارهها
حسینیه
ویلسون
##ogle
اوصاف
الام
نخورده
کودکتان
رودهای
اسپرت
##ینگن
بوند
۳۲۰
تنگی
هدفون
ویراست
کالاهایی
مستعمره
بالادستی
بطوریکه
##فوی
##الش
استه
تنکاب
شکمی
اسیبپذیر
طلاب
خوراکیهای
ناسالم
ترانزیست
بزرگوار
اقتصادهای
تکلم
اسیبپذیری
شمارههای
استرالیایی
مرغوب
نافر
پرنس
جوانتر
ترفند
کوفی
نیازمندی
همکاریها
ind
اتر
سلو
##cd
راب
مشای
۱۴۵
سعود
نبردهای
۱۳۴۵
تابلوهای
وحی
الرح
تقوی
غیرمنت
هورمونی
##حده
راهکاری
نمایشگاهی
اپوزیسیون
گزینهی
تماسهای
جنی
بارگیری
غیرت
بیشماری
پرداختهای
فیات
پروتيینی
افسرده
سکانس
##بیح
خرگوش
۱۵۵
معتمد
تشبیه
رمزگشایی
انبارهای
رشوه
فضاپیم
##خسرو
ثانیا
بهمدت
بهمع
برروی
تمجید
ارزوهای
پاسارگاد
خبرنگاری
نوزده
بدهیها
والتر
##unt
زینب
توطي
دمایی
سبا
##فرنگی
کولی
دیدهاند
تزيینی
۱۳۴۱
play
pe
بکنیم
##رینی
##اتان
نوا
همراهان
ماهیها
شعرهای
مزاحم
حت
کنیا
الرژی
شمش
##شرت
جاوید
سندروم
##ower
فلوریدا
بهسرعت
بشدت
لانگ
کورتی
##جت
دربند
موه
##وردن
بیاوریم
وظیف
ثانی
شفی
چید
خطبه
عزیمت
##کد
##ly
برفی
اقامه
کمینه
جف
توجی
جملهای
اهک
لیون
ویرانی
گشوده
برهنه
دیجیکالا
جلیلی
##پایی
نوشتهها
##نیها
فعالیتی
##gr
شورایعالی
حمیدرضا
بیابانی
سيول
اکرم
چوپ
##xt
##گاران
کناری
السلطنه
اره
اشرافی
جوانب
روزنامهنگاران
بازگشتند
نجوم
پافشاری
گیب
##ys
گزارشات
کلیات
حافظهی
قلعههای
##الود
تفاس
۱۱۹
متحول
اشخاصی
منجمد
سرلشکر
تاس
مهری
تسلیت
نگرانیها
کارگردانان
لاغر
۱۳۲۴
دندانپزشکی
متابولیسم
درباری
شرکتکننده
قطارهای
کامرون
##ank
درخواستی
باغها
توافقات
##ign
بختیار
درخشانی
حن
##ریکس
اغراق
##att
سوسیالیست
ناصری
حسنی
نداشتهاست
قضايی
##own
انهم
فرزاد
دوبل
گذارد
نوشتند
پیشگامان
cent
صخرهای
غن
دیزل
ناارامی
تکوان
##فسکی
تراژ
الهیات
مشمولان
دیکتاتوری
پرسرعت
##رهی
##ریایی
تجم
##ادرت
شدیدتر
ریزگرد
انفجاری
##رگ
##ندهها
مطهر
فردین
برجستهای
عشایری
واپسین
قحطی
وهم
##۲۸
امیدی
معناد
سنس
اشکارا
google
اکان
ثابتی
##هایتان
مثنوی
ورشو
استقامت
تختی
فضاپیما
بادهای
کبک
##ادید
##ابا
##اين
##کنندهی
گازويیل
رژیمهای
فرانکف
وکلای
ساعاتی
کلیت
گذرانده
قرقیزستان
شوی
##br
موشها
متجا
میکشاند
کافیست
مسافری
اژهای
شهرکهای
نوظهور
بشمار
فاي
اسانسور
##اپو
ادراری
pol
تفت
ودا
هرج
مجرم
غیرانت
##ern
ارامنه
روانشناسان
پیگیریهای
بنیانگذاری
منزوی
دخانیات
لذیذ
اموزی
سرورهای
انجیر
نسبیت
کوتاهترین
۱۹۲۲
اتیلن
استعمال
لمسی
##گرو
##ژنی
سیلی
دانشبنیان
نرفته
امپری
##حسب
مجلهی
##ake
مارشال
مستثنی
زوایای
ec
##یها
##لید
دهخدا
برگشتی
بنشینید
رومان
بیچ
سرگذشت
روزهایی
تخمدان
جوانترین
##ics
ورامین
یادمان
برخاسته
فشارها
ذهنیت
حاشیهای
۱۹۱۲
کنجکاوی
خجالت
نویسان
اینشتین
##متحده
بلاروس
تقلیل
##کردنی
شیفته
خردسال
##عمول
موتلفه
زل
قارهای
هون
##حدی
##وریس
حمزه
نکردهاست
قطعهای
نمیدانست
کامپایلر
علايمی
##يوت
موید
نیکل
برگها
گلاب
تورینگ
اسکور
دامی
سیدی
واز
چری
میبرید
استوایی
مجذ
##ایندهای
پیشنهادات
اتیوپی
باخبر
رمانی
##ual
پرشور
لغات
هارون
همف
فرج
انتقالی
۱۳۶۶
گمنام
##کلام
##چک
سراب
ویس
سهبعدی
##dp
برحسب
کارزار
معاش
فرهی
ایزدی
##استر
##ett
سمند
##عادل
دادهاید
سیارات
تره
هیولا
گزارشگر
میلر
اکورد
مهاباد
گرانشی
واژهای
رگول
موزیکال
حواستان
مسموم
پنگ
##زنان
پرسشهای
لشکری
استعلام
خرماباد
طاقت
رخدادهای
فاح
گوزن
میاموز
استفادهی
حکام
دریافتند
مینا
micro
شفق
صنای
انتظاری
##افتاده
ببینم
عمدهترین
۱۳۲۵
پرداختهاند
استنباط
حصر
##شاخ
یاي
پایاننامه
وزارتخانههای
کهنترین
گسسته
پلیمری
لیا
ترتی
فردریک
ماشینالات
##ase
دندانها
لیر
ودر
مثانه
ارزهای
یادم
##سلر
کفشهای
اروپاییها
ژاپنیها
همجوار
تصدیق
میپیوندد
پویان
گرفتهایم
کانت
سهراب
التحصیلان
بلومبرگ
##پاس
براق
##ابین
بزرگسالی
بشویید
نابسام
پوشک
انحرافی
۱۳۳۷
کنسرتهای
مودم
بایت
یاق
##افه
تجلی
مغازههای
موجبات
##ica
برمیگرد
۱۳۲۹
میپرسد
هلیکوپتر
کاران
دیک
ساوه
##ايب
ماهیچههای
vo
زوم
عاید
##شتری
سیبری
اهلی
ناي
برگشته
میرز
رودبار
عنکبوتی
انشاء
مبادرت
۱۶۰۰
##کشور
حاشیههای
ایزوتوپ
الایندگی
بلوتوث
غیرانتفاعی
فسیلی
نبی
##شدنی
دیویس
نوح
اتاقی
مختصری
خانوادهی
شستن
##جل
بینندگان
صفرا
جوانه
ابرسانی
گرانترین
کانونهای
باختر
عجله
fe
##شکن
##خیصی
جهانگیر
روانهی
موثرتر
دروازهبان
گیمز
تعاونیهای
کع
بیگن
پروپ
کریمه
اکتفا
استخوانهای
هوشیار
##انیک
راهور
علیا
سنای
عملکردهای
سوزاندن
عهدنامه
ظرافت
عت
##ms
##we
سپید
نیما
##ark
ایالاتمتحده
مهارتها
خبرگزاریها
تایلندی
پنی
##ولید
مقن
زندانهای
نهادند
سمتی
ثروتمندان
کارکردهای
مجلل
سجاد
عامیانه
by
mac
سما
فوم
هدی
هاین
##اشان
##شات
##سپار
اخوند
##ale
استودیویی
بغل
جوار
نصی
اینان
نفوس
قطعاتی
دودویی
لیل
##حر
##حص
##اقبا
##اصب
۱۰۸۰
صدف
فرودگاههای
##شام
بانو
##ونیوز
اطفال
نتیج
روانپزشکی
میگذشت
پهنه
گیمینگ
اکواریوم
تفاسیر
احاد
الکترونها
بهرهمندی
سخنانش
ant
تحرکات
بهتدریج
استبداد
##مهر
محفل
گوینده
پنجرههای
متقارن
یوگسلاوی
فرور
پیشنویس
احیاء
سازش
تجسمی
شهیدان
سیمین
حاکمیتی
متمادی
صفا
کلیوی
صاحبنظ
۱۹۳۱
انبوهی
رقیق
##۷۷
##۳۱
بازرس
اولترا
روشنفکر
پشیمان
طرد
وو
##جدی
##hd
##اندو
اکبری
حکومتهای
موزهها
تمایلات
##محمدی
نایل
کتان
فرات
اپولو
متعاقبا
۳۳۰
میزنیم
پذیرد
فیلسوفان
نپال
پیشتاز
جزیرهی
بتهوون
##ترال
##وشو
پردازی
جوادی
پهپاد
بسازید
نصرت
##ودار
##سیه
اسدی
ابلا
##شنه
لوگوی
##تونین
نسلکشی
تریاک
میکروبی
دربرگیرنده
بهاری
##کنار
##وتها
بازنویسی
ناا
فلورانس
میفهمد
خفا
امارت
مجرمانه
مرض
##کسل
##ere
اشتها
##نامهاش
پوششهای
بحثی
چلسی
world
هجر
##ورایی
مردانی
اخطار
سطر
time
منار
منبعی
ریوی
کمیک
##ond
ابیطالب
زوجهای
الجزیره
جادوگر
صاحبنظران
سرتیپ
مجریه
دیدارهای
شروط
فرزندانشان
لطفی
سیبزمینی
حاضران
##مصرف
یکجا
##بیای
تنزل
میکردید
مزدا
بشه
دراوردن
هیلاری
دقایقی
فرانکفورت
شریان
نزن
##امز
##ابان
تقریب
ستد
استخوانی
شاعری
##جزیره
مظنون
برانگیخته
عقلانیت
اجزاء
تنباکو
محال
##رانید
ازادیهای
۱۳۶۳
چرخشی
افلاطون
سفته
##چوبه
خودا
کمپرس
سهیم
تشخیصی
##ina
امامان
نارنج
فوتبالی
قابلتوجهی
صدراعظم
##cess
##ایار
جهانیان
مجموعهها
بستگان
۱۹۲۳
گویشهای
دیافرا
بهروزرسانی
نامعلوم
##گلی
ارغ
پیشران
##فرین
ابوه
تعریفی
تلخی
صرفنظر
متعاقب
ابزارهایی
پروتستان
۲۷۰
توریست
انوشیر
چنگیز
##yn
##وانهای
روادید
تاکس
ریب
##جربه
مفس
بندری
رضاخان
محدودیتهایی
کاپیت
کاروانسرای
گورد
براف
اخلال
دوربینها
هیاتهای
شایانی
##box
لج
##وشد
##چاله
##راش
اجته
سامويل
مدرسهای
دعای
ریسکهای
ماساچ
پرداختهاست
راندمان
ژورنال
ناظران
##سوز
##عصر
##ارز
راسته
##شتان
##یمن
بیاد
##کسوس
گزارشهایی
##جویانه
عبدالکریم
هلدینگ
پلیسی
##yl
هویدا
عقید
نشدنی
مخصوصی
هورمونهای
نمیگذارد
ببخشد
##طره
مدفون
توسعهی
تلگرامی
تنگات
##ivers
رسوبات
اهرم
گوس
مرادی
مبارکه
جابز
ابوظ
دایناس
نمکی
نمرات
ایستادن
ایدهی
نبردی
شوت
لاش
ورای
ژل
تاخت
دوبار
خاتون
کاندیداهای
ندای
قلمر
کارتها
نمایندگیهای
طالقانی
عجای
قمی
##۸۸
##۲۹
##روع
##وزا
حسام
درامدها
دماهای
۱۹۰۵
شلوغی
شاتل
قری
گلیم
##۳۶
پرسیده
مبلمان
قدمتی
##سپاری
غلیظ
ماوراء
حراست
زيوس
چاک
کويین
دستورهای
گزینهای
پروندهها
شامگاه
التهابی
راو
دوبر
ورقه
اهانت
گیرندههای
بابلی
۱۳۴۳
ماساچوست
صلو
##ron
استرو
##اسبی
رهسپار
##ame
سويیفت
متولیان
قضای
سرگردان
قرضه
تعالیم
پیمایش
توریسم
میریزند
air
led
شاک
شیلات
##خالی
محول
کمین
صادره
##المومنین
تراکن
عبدالرحمن
عاب
چیت
یق
##وسفی
اکوادور
##پیچی
درامدزایی
فرهنگها
جذابیتهای
۱۳۳۶
۱۳۲۸
صیاد
یهودیت
زاویهای
ep
ضامن
کجای
پسماند
ساختهاست
حلهای
##atch
پرتوهای
۱۹۱۵
۱۹۲۸
##واسطه
مناقصه
هافبک
mot
فورت
وث
##زارها
معما
مرعشی
زنها
عربها
فرموده
۱۹۲۴
هپات
##زاس
انالوگ
##اندیشی
نقاشان
##وقع
شربت
خطرناکی
پیکربندی
خسارتهای
خویشاوند
##ثل
##تیس
دوسال
مقامی
پرسی
##زدگی
موتورولا
اونا
ic
خیل
رید
رامین
عیل
دارچین
نیزه
نامبرده
عرضی
شعبان
دینار
تالش
محتوایی
دلسوز
جهرمی
بپر
##حم
مساحتی
داروین
شیفت
۱۵۶
جدال
سوختهای
ماکرو
انتونیو
##au
دران
##اندین
هراز
اسپیک
##يوم
##تیسم
گرس
کشورشان
##اسیا
احتراق
مینه
بهتازگی
طرق
لز
مزین
##۲۷
کارتون
بلع
##ann
جداگانهای
خمیده
صدمات
کتیبههای
قشقایی
بداف
لکن
سرتان
شمع
اعتمادی
پاسپورت
بستان
صحی
گیشه
##فراز
##ینیان
سریالی
چغندر
پسابرجام
انتگرال
ابوظبی
چکهای
بیضی
هیج
بیمارانی
العادهای
فایلها
ناکارامد
فلاس
مشاهیر
تعصب
ملموس
۱۱۶
انداختند
زخمهای
ربیع
جامه
گسیل
##ناج
بخواب
صحنهای
میخواندند
بصیرت
رغ
رفر
درمیان
بیابد
کمونیسم
بتوانم
مارکت
۱۶۴
ایدهای
##ome
قزوینی
تسهیلاتی
اوستایی
تودههای
تگ
نرد
##فیک
کارم
زمینها
اپشن
مطالعهی
انگیزی
زادگاهش
جاز
##علا
میبریم
همون
۱۹۲۵
هنرمندانی
بیهوده
معابد
گفتگویی
شکایات
مخروطی
ho
تستهای
شالی
##وانیا
##اندیش
عمود
نقلی
دریاها
طراحیهای
بردهاست
خاتم
لال
دادسرا
انتخابیه
شاخصها
چرایی
میاوردند
فرستادند
سگها
ناپایدار
مردها
##وشند
۲۰۳۰
۱۳۹۹
جنبشی
هیجانانگیز
عباسیان
کنسرسیوم
انوشیروان
بسر
تایی
ازب
روپ
ماهنامه
##کاو
تهدیدهای
کیهانی
مقتول
##السلام
زو
گینه
##نشاه
##۱۵
نیمکره
کدو
۱۳۳۵
۱۹۲۶
ریشهای
سناریوی
مسالمت
والت
درگرفت
اجرايی
اتان
اشتراکی
لیتوانی
##خیم
سرن
اتو
پیرمرد
سنگینتر
جسور
سروتونین
##جنوبی
عجایب
هرو
راههایی
سالاری
##بتان
ایانا
محمدحسن
##ero
اهدافی
بریتانی
شایعاتی
ابطال
سرگیجه
جبری
##وودی
##طب
##ابها
##وریک
کیار
غربال
عکسالعمل
##عفونی
عشقی
ویتامینهای
قایقهای
رباعی
ابلاغی
زهر
مافی
مدول
جدیدش
عبادی
دانشکدههای
میخوانیم
تطبیقی
سوییچ
سناریو
##کون
##فیلد
##ارکت
بروی
استایل
عمدی
غیرو
بولیوی
لیزری
##tp
##اتری
##ستهاند
درامدند
اسپران
##ork
افتادند
الکتریسیته
ارسن
میشناسد
فزایندهای
عادتهای
aut
اوس
تربت
شنود
گردیدند
علاقمندان
ضربهای
بنویسد
طهماسب
بطن
شاف
ود
بهايیان
##سیت
بازیهایی
مخد
پاکی
کلاسها
محافظهکار
گمانهزنی
##مندانه
میخوام
قدمی
سینماهای
کلاسی
لشکریان
گیتس
ايودی
درود
ابریز
غربیها
med
tw
فمینی
##باشی
بالکان
مبادا
سوسیال
نقطهی
gen
لگن
##تار
استارک
لایهای
خشایار
اشاعه
منقر
دیدید
نفرین
##کلن
ازمایشگاههای
نمونهها
دیرتر
اکسیدان
ستونها
گنجایش
ثروتمندترین
ass
تکت
ولف
نورپردازی
۱۷۴
نکردم
قیامت
سويیچ
لاهیجان
هروی
ترخیص
موسسان
گوشههای
سمبل
##ings
۱۳۲۷
پروفایل
شکننده
چاو
میشی
متد
دیگرش
بنوشید
سواران
نايل
کیپ
زنجبیل
##rom
حکمران
قبیلهای
مغازهها
استعماری
e۳
##سترین
میمیرد
بالعکس
ناگفته
##نویسان
میافتاد
کاندیداها
طر
قشون
##طیر
حضار
تورات
حجتی
چیدمان
قاف
قنده
مالیاتهای
کریستالی
کریستوفر
یادداشتهای
دیافراگم
بازپرس
پارچههای
اکو
شاهزادگان
شاهنشاه
صنعتگران
##ونتوس
میاندازند
بارسلون
وهله
منحصرب
یاقوت
ایش
ایلات
میبود
##وطه
واچ
ملایر
۱۵۹
امیرالمومنین
نکشید
دنا
هلا
کنگو
هدفگذاری
فسفات
فود
##ii
##الز
یکسو
متفر
ابرقهر
ازادیبخش
پیمانه
ژنراتور
کوشید
ازاردهنده
##کوت
##lo
داراب
۱۵۷
نگاران
مقدمهای
پیامبران
بلاک
##انلاین
براز
پیشگویی
تاکتیک
اسپیر
نصیری
انستیتو
دانیل
متفکر
منقرض
##وقه
همچین
گیلاس
##ance
پلکانی
حادثهای
قرصهای
##زمی
یکه
بازیگرانی
۱۳۳۹
همدردی
مینامیدند
ضمنی
لاي
##ورتان
پرتره
واژن
تفحص
مرتضوی
##ane
باورن
افسانهها
۱۹۲۷
شوری
برچ
ترشی
پولها
المپی
مادام
بدیع
##stem
میفروشند
صابون
هلو
##دیو
##خیزد
تشکیلاتی
قسمتها
دریغ
گزینهها
دقایق
خادم
کفر
ایبی
کلن
زندگانی
دلالان
پردر
جنگندههای
دیرین
۱۳۴۴
##سیلوانیا
دانمارکی
صکوک
میشنو
مصباح
زیرزمین
فیلمسازان
جامعی
یادگاری
مفاسد
عقلی
حداد
سپردهگذاری
اکتشافی
جهرم
فوکوس
سامی
##نفس
بودا
معش
۱۹۱۰
چمران
##رام
بازخوانی
دولتابادی
ناوبری
خواهش
تاکتیکی
نمیگیرند
حقوقهای
واژهها
ممنوعه
بگذرد
معتبرترین
نمیخواست
مدیترانهای
##تشاش
لوز
تعرض
منتفی
میانرود
میزو
گیگاهرتز
ضدعفونی
هیدروکرب
مطلوبیت
ونکو
بازگردانده
غمگین
##tr
##ذیری
الود
فرگشت
کشاند
##ریکو
اغتشاش
بیانات
۱۶۶
بتنی
##حام
میور
##ورس
جیوه
همسری
چارت
##نبرگ
##چو
نخجوان
##ink
خدشه
اسفناج
##urn
معتادان
fi
نبات
اسلا
برخوردهای
پیروزیهای
اندیشمندان
##کینز
بسازیم
جایزهی
مومیایی
##جاب
بههمین
ماي
مغان
۱۴۹
نگهداشتن
مجتمعهای
والمسلمین
core
up
##۳۴
##منه
پیامها
اسکله
تاجگذاری
متغیرها
معیشتی
درایو
بپذیریم
برشی
جنون
سیمون
موضعگیری
کیمیایی
##مو
##بولی
ارگانیسم
اشتیانی
pet
دادهای
تردیدی
مادربزرگ
son
هارت
##یدور
استات
همسان
##ختگان
تعدد
جوشکاری
حدف
محمودی
کاربرانی
ارزانترین
شارژر
مضامین
فد
ازت
خوک
##ایدهای
دستاند
##کتاب
گوست
میلیاردها
اصلاحیه
سایبر
خشون
شهرکرد
برگردانده
مغولستان
رزین
استونی
دوگان
مصور
بزرگنمایی
هدست
طرحهایی
پیامرسان
پهناور
داير
چیپست
جانبازان
##۸۶
دارالف
بارهای
گلدان
تریبون
استوارت
بفرستد
حاصله
رفیق
لاپ
گنو
یوش
##ماس
##قط
##اهنگی
اتل
##اخان
افشاگری
پاری
الغ
استفادههای
##دره
پاساژ
بیماریهایی
مدعیان
انعطافپذیر
سست
##پوشی
درههای
کارن
ترنس
رهگیری
##تومان
جذابتر
کابوس
گرانبها
انزوا
برداریم
شجاعی
مینشیند
بویراحمد
سیسیل
تحتانی
متوفی
دایمی
cap
غنا
ایرانشهر
یونگ
چایخوری
##کاره
##اندازه
دلش
نورانی
شهریه
پالس
کنسرو
الزاما
ییلاق
ترتیبی
جوری
##جملهای
##لیوس
شدهی
مروری
##وبیل
##مرز
اکسپ
ابشارهای
##سپیر
تسلیح
sam
جونگ
توسعهدهندگان
مشهوری
مکانهایی
محکمی
لحظاتی
لسانجلس
ونکوور
دارالفنون
##راجی
##ضرر
عدسی
هفتهنامه
موقعی
سردی
کارهایش
یازدهمین
موسیقایی
hy
داب
##فو
بهدر
گرده
جنگجویان
سیستماتیک
یونهای
دخترانه
مخاطره
وجهی
خوشحالم
مزاحمت
مجتهد
خراج
خوزه
سوژ
المانها
اتشبس
زیباتر
پناهندگی
ویله
میچرخد
قندهار
fat
دریک
##باشند
جنگافزار
اموزگار
مبادی
توضیحی
شنیدم
هجرت
سرایت
نامیدند
ایتم
بگذر
صفحهی
مینمودند
شاي
##sk
موزی
استفان
تیموری
بعلت
موجهای
##زاج
پایینتری
جناحی
٢٠١
درعین
میگرن
مدرنی
گات
##بسته
استکه
دیزلی
اورید
بازیکنانی
۱۳۲۶
ادعایی
پتانسیلهای
پاتریک
مفقود
دکم
##لون
##مک
دراید
میایست
پرباز
##جانب
بزنم
سیبنا
کرس
نیلو
##شدهاست
اشوریان
باغبانی
ظرفیتها
ste
sec
غرامت
max
cam
وبر
##موند
##so
گرند
اسپه
اندیشی
تمدنهای
میهمانان
معشوق
زابل
##ve
##امههای
امبول
مجریان
بازو
کنندههای
فروید
متناهی
پیکره
تروریستهای
##ساعت
مجذوب
gre
بجن
پلو
راسل
##گرانه
جلساتی
تخمک
حاملهای
سحابی
ضعیفی
کعبه
قذ
##ولات
##شکی
ویولن
مستقلی
نمیتوانستند
کشتند
##ara
پوکت
بخوانند
پیشبینیهای
فریدریش
چاش
##ربا
همتی
دستباف
ماگ
اروگويه
نگذاشت
پرطرفدارترین
بپذیرند
دانشاموخته
اجتهاد
بورد
جات
زدم
##زارهای
کلاین
نهان
##خارجه
۱۹۰۸
نوم
معطر
مسب
بیشمار
##وتیکها
کوالکام
بیشازحد
bi
حریق
زهره
##ورای
اوریم
دیوارههای
غیرمعمول
یخبندان
لنو
##کود
##برا
##جنس
انژ
##یاف
رویاهای
قرنط
##بدالله
۱۹۱۱
میزنید
نرسد
۱۳۱۴
گجت
اصطکاک
رومیها
یوهان
##ذا
امدم
یاخت
بدوی
۱۳۳۸
univers
ساندویچ
قاطعیت
باورنکردنی
مایر
گنگ
افیس
نوپا
دلتان
روشنگری
##یدیان
شناختن
حواله
درسهای
توریستها
intern
ایتی
ساف
لاج
##یابد
##وبر
##فتهاند
اجاق
##وتون
۱۴۴
سکولار
کاتالیز
نبودهاند
باتریهای
کنسولهای
وجدان
درصورتیکه
تمسخر
گرسنه
دج
##ha
##اییم
دیود
ایلی
فقرا
اجتماعات
هواف
تخیل
اسپورت
##وفسکی
##اتیکان
میدیدند
فانوس
زیردریایی
فانی
##۱۴
گلابی
کاریز
لوای
لذتبخش
##سواد
غیرمنتظره
حدفاصل
حتم
لت
تصوف
توران
معاشرت
ظال
##ca
##ینسون
خبره
امدادی
یوونتوس
زامبی
گرایانه
mr
##یدهاست
هستههای
قال
اوه
موثرترین
گنبدی
اقیانوسیه
گلبولهای
راندن
مالت
وادی
مشیر
##اکت
سردبیری
مفسر
واکنشها
نتف
فرانسیسکو
هپاتیت
ضیاء
##نژاد
چهارگانه
گروهک
رودخانهای
پذیرفتند
حبیبالله
trans
بنشیند
فریزر
##قتی
دوزی
غیرضر
خریده
۱۵۴
اصلاحاتی
اتمها
مشروع
تروم
##سنت
بهجز
کاره
ترکهای
علیهم
توانبخشی
تمامیت
##کوبی
مرتبا
اهنگسازان
سوختی
کامپیوترها
نمیخواهند
لکههای
gtx
دات
پام
##۱۶
تاون
معجز
دادوست
اخترا
ملیت
مشخصههای
۲۶۰
تت
یوم
انتالیا
پیشگیرانه
بنچ
##نوتی
سیدعلی
صداها
کتک
شارلوت
system
تکواندو
ویلهلم
١٢
اولش
اپتیک
سختگیری
کمیتههای
۱۹۱۳
ایینهای
نروژی
نتفلیکس
##غربی
مسخره
بیشک
##iss
اصطلاحی
علاقهی
بهرغم
مظهر
گرامر
ژيوپ
##خونی
امرای
ابدی
تهیهی
حقیقتا
##خوانده
دروغین
##پدیا
لامپهای
mus
بگم
میامی
##ولها
بخاری
دهل
دریاچههای
طبس
هواگرد
کرمهای
کاج
سوختن
بنزینی
تراژدی
sch
وادا
پز
##ایقی
امپر
گزاره
شوالیه
مسیرها
پلتفر
مقننه
aw
sn
۶۰۰۰
##نفر
##زادی
##۳۷
برنت
##رکه
دوبی
##نیهای
نظیری
##ارانتی
کامبوج
تفصیلی
مسلمین
پرسشی
منظورم
سیاهپوست
##گنز
##وناگا
قاچاقچیان
نمیماند
قلمروی
ثور
سینی
##دستی
##ارب
##وندگان
فیلد
شمیران
موفقیتی
اپارت
دامغان
خلقت
باکتریایی
زینتی
کاراگاهان
کیارستمی
امبولانس
hot
po
val
تفا
یکهزار
توالت
لیزینگ
رستا
عناصری
ایفونهای
رکوردهای
عطف
مظفرالدین
رادیکالهای
الکسی
ادوات
نکردیم
بهارستان
نادرشاه
اژانسهای
تغذیهای
کربنات
میاندیش
شافعی
##غامی
بوداپ
##وریو
##اقل
کلرید
۱۶۸
دینامیک
مخاطبین
all
غیاب
اسباببازی
١٣٩
ملب
ژوزف
دراور
##شدهای
افشاری
پسا
بدبخت
نخاعی
سوییس
طیفی
قرنهای
وسایلی
سعیدی
مخالفین
بادگیر
سپردن
اعترافات
نامتعارف
جار
گورک
##تع
امینه
بالستیک
نخبه
برخط
منصوری
امتحانات
پرخاشگری
ul
غای
فسیل
##صدی
##هرحال
مصریان
گوید
##ايین
فردوس
حالیست
تشعش
##زرگش
ارمنیها
تراشههای
طعمه
قوچان
کچ
یکساله
اشغالی
##ینگتون
##ator
حجازی
چالشی
بیندازیم
رهنمود
اتشنشانی
پون
##اسان
اران
کشفی
خواری
جواز
##ويه
۲۱۰
زدگی
دروازههای
##پنها
##پناه
##iew
ناکارامدی
bro
ساپ
طوف
##رور
درن
##سیو
##یتبار
شکاری
اقتباسی
##وقات
نگهدارنده
##انتس
مورگان
کولر
خازن
میفرست
##ولینی
##یلو
توسل
طولانیم
##عاع
عزیزی
galax
hp
چت
##ei
فرای
ویک
##شمالی
شنونده
گوتیک
زمینهساز
کانتین
اسپرین
همایشهای
تعرفهها
گین
##ونیه
پروندهای
##ايیب
پارچهای
سفالی
سیاستگذاران
super
فضاپیمای
et
مکن
##عاش
##یلن
اقلید
قلعهای
حسینعلی
##محور
میبندد
حص
خامه
##وثی
##هدی
##تهران
نظرش
دلوا
بردگان
بورسهای
اسکاندین
فهمیدم
متضاد
بتر
براد
معار
دیگ
مرجان
مرجانی
اعزامی
هنرمندی
۱۱۰۰
نفخ
تابوت
عبدالم
۱۳۳۳
اپارتمانهای
غدیر
ژرمن
یلدا
##يا
زیور
سامانی
عاملان
حاصلخیز
لغزش
##زلزل
رصدخانه
مدیتیشن
میانرودان
اسکاندیناوی
سرده
شگر
۴g
##حانی
##ازهی
##ترن
اقامتی
نخستینبار
تیغه
لنف
عکاسان
طلس
طغر
لژی
##چای
##com
دربرد
ترام
##ater
ماهیچهها
پابرجا
بچر
اسکری
العمل
۸۵۰
راحل
رومن
کارايیب
کلار
انتقاداتی
جایش
لباسی
##po
##ویگ
ابمی
قبض
همهجانبه
کویری
یونیکس
روشنتر
مکانیزه
زیباست
۱۳۳۴
الحاقی
سوسیالیسم
جاک
##ردوست
##روبی
کارتر
فرعون
واردکننده
فعالیتش
۱۱۲
بلندپایه
##aph
صهیونیستها
هکرها
صرع
مکار
##ذین
دیلی
اهنگی
خصوصیت
ادمهایی
زیربنای
اکانت
##رنگی
##ینوس
کنایه
کنجد
##درمانی
##لسل
کوچکتری
سابقهای
العالم
سیروس
ژنها
فرمانروایان
##انگیزی
هویتی
پرکاربرد
افشین
##کتاپ
اختلاس
شیوا
تورب
##ict
وسیلهی
بسترهای
اتومبیلهای
نیوزلند
دزدیده
قرضال
شمایل
##یاد
اوگ
ارگانهای
بیب
انجامشده
مخترع
متناقض
باورها
مایلی
لیسبون
تفرقه
واتیکان
اووک
توانا
عکسهایی
۳۵۰۰
۱۹۱۶
هندیها
لطیف
دریانوردی
تمهیدات
طارمی
متجاوز
تزار
واین
مشورتی
##بانو
مراود
ترکمان
طرفداری
امنای
عالیه
دوستانتان
محتاط
اتوبان
نمایشگرهای
نژادهای
وعدهی
قات
منسو
نظافت
##عتری
شکسپیر
هیست
سفرها
نگین
پنسیلوانیا
پردرامد
عوا
گاندی
##be
##ستانه
الرضا
##برم
پیشامد
ابها
مراغه
اردبیلی
##علیق
مخدوش
غرف
ازاده
مصی
ولیعصر
احتمالات
لوسی
گذاشتهاست
مریض
دنبالهدار
ندادهاند
حبیبی
عسکری
سمرقند
چرک
##سها
امیل
گفتاری
##ارتز
ندادن
مشتقات
تشوی
اسیبها
باغچه
مدرکی
مقتضی
معیوب
خبرداغ
دپارتمان
سنسورهای
نعم
##یدانی
##شتند
##روزه
محب
دادید
مشایی
دلنشین
##اووس
دسکتاپ
بایگانی
۱۳۰۴
اشعاری
رگولاتوری
نیلوفر
دورد
شرا
##شکنی
##ستال
اوبر
تقصیر
مربعی
بودنش
نقاطی
بیستون
تازههای
میشیگان
out
لش
##ga
##ودو
##لیکی
بیرویه
سیدمحمد
##ise
تفاوتهایی
فرودگاهی
شبانهروزی
نمیاورد
سرپوشیده
استکهلم
بوداپست
galaxy
جلیل
حجر
گارانتی
منبر
ارتعاش
بلشوی
راین
هدفهای
نبودم
سیاهچاله
برندها
سروکار
۱۳۱۶
فضلی
زايد
دراستان
فیشر
مژ
استوانهای
دیون
اقلیتهای
##درامد
سیطره
##رمارکت
##ication
دانستهاست
انقلابیون
مامورین
هرکول
منحصربفرد
طاع
اوق
خداست
بشقاب
عمیقا
خوراکیها
قرضالحسنه
قامت
##کزی
ازسوی
استیشن
##روا
##بیگ
مداح
فیلمش
مستر
لبنانی
جسارت
زغالسنگ
منافذ
فبل
فدایی
هفتهها
ایندهی
سودا
متوازن
۲۸۰
پیادهنظام
##وگراف
تپهای
##مارک
ناکافی
گناهان
صدیقی
تورنمنت
##ورث
##ونو
بازنده
قبله
مارپیچ
فرمایش
کشتیگیر
مقیسه
کاوشهای
کاریکاتور
طولانیمدت
##نشده
برجستگی
تصورات
##اشتن
انبارها
##able
استنفورد
تويیتر
log
خونه
هراک
هایتان
چکسل
##رداری
ارتشی
##مدیره
مارم
شفافسازی
کانالها
غیرواقعی
hiv
ژاند
امنی
شدهام
کوار
عنصری
##مونیک
بلوکه
پیتزا
واعظ
ذینفعان
قذافی
mg
##چنگ
روایی
ادولف
رسد
عبوری
نفتکش
فارسیزبان
تحصیلکرده
هارمونی
##خدایی
طغرل
مصیبت
del
غشای
##میس
کماب
لبههای
چینش
زندانها
تریپل
##لاطین
os
ذاي
رانش
سدان
##بنای
خبرانلاین
میخايیل
مارکو
##میلیارد
arm
خوارزمی
ابزیان
غیرضروری
رستاخیز
بنج
جانداران
دیش
##نف
##حور
##اترین
منفعل
منگنز
##اسون
اسفر
سرگر
هرمی
هرساله
مره
عمو
عمویش
صحرایی
نابین
امیرحسین
نتانی
فارغالتحصیلی
کاردانی
htc
نیفتاده
منسوخ
rna
##واند
پیغم
چندجملهای
بلژیکی
نمیخورد
خداب
میاوریم
بوق
سيو
یغ
##مایش
##الام
##روفی
برایند
موتو
مقبر
روانپزشک
خوابگاه
##غدادی
انضباطی
خسروی
تنکابن
پویانمایی
صبور
##۱۷
##ونید
القای
دادگاهی
##رسازی
بازدارنده
سبکتر
عدل
سندیک
جرقه
اقیانوسها
ویکیپدیا
تسلیحاتی
بوز
میگه
کمیتهای
پران
##شماره
شوینده
عقرب
پتروشیمیها
نگهبانان
۱۴۰۴
چکسلواکی
جیل
دورت
##شنی
##غلی
ارمانی
بخورند
##لبانی
نگاره
فکرش
خواستگاری
رویدادی
نوبوناگا
##طرفی
##اترا
سرامیکی
کلارک
فروغی
قانونگذار
فلکی
تجدیدپذیر
شستشو
قاعدتا
دفتری
##bs
فرمی
دانشگاهیان
حوزوی
بحر
منظوم
تصمیمهای
##يیان
ابانماه
tra
مازی
مابه
مگاهرتز
وط
##ریل
الحسن
##میق
تمرینی
نسلی
اهو
اپی
کیوان
اتحادیههای
بیدرنگ
هلن
بوته
نمیخواهم
وراث
نتانیاهو
lo
##key
طبخ
پرسیدم
بحثها
پاشنه
نوشابه
چسبندگی
گرامیداشت
متصدی
دستاندرکاران
لالی
##حهای
##راء
چهارراه
کیو
مینامد
خاکهای
سینماها
کربنی
تمرینهای
کنسولگری
زاهدی
can
مولا
##der
استنت
##ابیم
##ابدین
افات
مسند
پرز
شکستهای
عکسبرداری
روشنفکری
معوقات
طویل
##انوس
اندرسون
راهداری
نرگس
اولینبار
طیور
هوازی
قیصر
اولیهی
موانعی
میگذرانند
فلاسفه
قرنطینه
ثم
شتم
متاکری
توپهای
فرودگاهها
فهمیدن
کارگرو
##book
اسکندریه
کیفرخواست
مکزیکی
ازدی
میکوشد
راهبری
تکریم
سوداور
پاکستانی
تفاوتها
نباشیم
مینویسند
قصاص
بپیوندد
استروژن
##گیهای
پاسکال
۱۶۷
نکونیوز
۱۹۰۷
سويیسی
فضلالله
بجا
کورش
##تبار
##سگی
##ةالم
ارگون
شیردهی
حکاکی
ساختارها
عوارضی
۱۸۹۰
تکی
دسی
سلاطین
صافی
فازی
نایت
چیده
یتیم
##ail
##pa
نمین
دنیس
۱۳۱۳
مباحثی
گزید
مقدونیه
رایش
##خطی
اینجانب
نیاکان
نوارهای
دلپذیر
کیفیتی
گوشزد
##کاها
بافتها
##ose
برمیاید
rec
تعاونیها
زاير
فراهانی
اکنه
کاسی
گابری
##اوا
##یلتون
تلاقی
کرمی
کانونی
سرویسها
تبلیغی
تانکهای
مایکرو
۱۳۱۰
دراوردند
مهیج
ram
##غدی
برکلی
همو
مردمانی
کتابخوانی
اسپانی
##غذایی
اداسی
صمیمانه
داگلاس
غربالگری
lte
عملگر
مهرههای
پوپولی
تنگنا
گفتگوهای
۱۹۰۶
plus
زوری
##mi
براندازی
بازدار
۱۰۲
مثالهای
اهنگها
ختنه
بپ
فاخر
##فصل
##ير
محرو
داشتهاید
جملهی
هدفش
متراد
نمایندگانی
سقراط
inst
پروتکلهای
معنویت
طاعون
خفه
نری
کبری
##مردی
##ابراه
پرقدرت
##ونیوم
کتابفروشی
اختت
اطرافش
الهامبخش
متصور
بدا
جویا
##یمم
اموی
##یاست
کشمیر
دستتان
نظاره
اقدامهای
نگفت
رنگامیزی
مبارزان
بشوید
گاما
زمستانهای
کتابخانهها
خلبانان
bar
فتا
هریس
دردی
##هاتی
##ازاده
##راقی
بسامد
۴۸۰
عالمان
تشویقی
گلس
##port
میروم
##ریمی
##اریو
##مهدی
شوالی
میبخش
علاقهاش
نرمافزارها
منشاء
مقالاتی
cpu
کثر
گرایان
##چهارم
واقف
ابتلای
کوچههای
یدکی
فیدیب
شیره
اموری
اماتور
کارساز
کاراته
ریگ
رسیدم
پرداختها
یونس
فیزیولوژی
عبدالرضا
سنجیده
اتوبوسها
کلیساها
اسلواکی
زینت
خاق
فط
یگانهای
##fa
استرداد
مسجدی
ایرانخودرو
سومالی
نفیس
کمیسیونهای
کاتال
هاوک
دشوارتر
اصلاحطلبی
میانجیگری
عتیق
##سای
بابیان
اسانس
دیز
میکنن
اغشته
دراماتیک
##ave
سوغات
لفظی
تبريه
کارولینای
نستعلیق
بیگناه
##اوت
##انید
متخل
##رایب
۱۷۰۰
ناخالصی
یارانش
ییلاقی
معالجه
نگیرید
میمیر
##رکان
داعی
دوغ
##نینگ
اهور
تلاشهایی
ازدحام
ترکیبهای
بریتیش
وانمود
نمیدانید
فضیلت
خنککننده
کاراکترهای
براینکه
تیتراژ
معدودی
نمیافتد
چنار
زمزمه
اووکادو
سهی
١٩
مدع
کلمهای
زمانها
سرعتهای
دوستدار
##پرور
انسانیت
نادرستی
##فروشان
میگذاریم
##فارس
الط
ابش
اشن
##هنشین
ملزوم
فرانسوا
دوستداشت
##وفن
ولایات
مهاجرین
محرکه
حايری
مگابایت
##وسترون
باین
جارو
مزاج
قرنیه
تعزیر
افریده
اوراسیا
شیروان
۱۶۹
فسخ
روایتهای
لینکلن
چربیها
چنگال
ارجمند
iii
شپ
##الک
دوتایی
پرح
نهال
سخنی
۱۴۷
نویسندهی
نانومتر
بگذریم
انگیزهای
حلقهها
الومینیومی
صوفیه
wind
بلام
وفق
##۸۵
##سیتی
یکدست
خودران
قباد
شهریاری
راستش
پردازشی
وارونه
۱۹۰۹
تيوریهای
درمیاورد
عتبات
صراح
گودر
برادری
نواق
بدم
کلود
نمیبرد
قراردادن
سابقا
ایلامی
عثمانیها
۱۳۱۲
بهاءالله
back
ty
##to
یکتا
مسالهای
عمرو
گذرا
بشکند
سرودن
عالیترین
همجنسگرایان
قلیان
قاطعانه
hu
تبت
##مپ
##مور
بیولوژیک
##اير
مارکوس
بینالنهر
مخابره
ماریو
جستجوگر
گزیده
اشنایان
ele
٩٢
##نن
بهواسطه
مقارن
تمبر
نهج
عبدی
##ana
فرهنگسازی
توصیفی
مقدسی
وخیم
دلفین
لعاب
##وث
##دوم
##رکزی
سیلیس
اهری
رایانهها
کرباسی
تخمیر
پوشی
کلماتی
پاناما
جوراب
یوفا
نامشروع
پنجرهها
مصاحبههای
کرایسلر
نمیخواهیم
عنکبوت
عجم
پختن
##لوت
اوا
التی
دیجی
افغانی
مجیدی
دیدگاهی
موادمخ
راهبردهای
لوکزام
موتورسیکل
تیری
##لل
میاد
سیاهی
شمول
منتها
فراگرفت
کاو
خداد
میدادم
نامیدهاند
##خواند
قطبهای
محرکهای
ساین
##لیوم
##عداد
تنفی
تعادلی
کسبه
درمانگر
محمدم
مدرنیته
برهه
عراقیها
مراودات
صراحتا
غنیم
ماق
##ex
##hn
مجرمان
نامر
نامها
برنامهنویس
##erm
سفینه
داستانهایی
استحکامات
مادربرد
مسيولیتی
ibm
##چف
##صدر
مستندی
جزایری
توسعهیافته
##ari
##بازار
بستند
سرفیس
pd
عابر
نبین
محبوس
##نگام
ایوبی
##فرما
بزرگش
نشاند
لیو
الیا
ورودیهای
موافقان
گمرکات
پالایشگاههای
تنشها
فتوحات
قولی
دارال
ادل
شهربانی
##وسکی
##enc
بلوکهای
park
یايسگی
rx
شتا
##حون
##ملو
انتقادهای
تراکنش
قتلهای
اردیبهشتماه
والا
یونانیها
فراخواند
صخرهها
دیکتاتور
صور
بافر
اقام
شهرستانی
۴۰۵
اسکیت
باشگاهها
۱۳۳۱
دوپامین
موادمخدر
رودی
سگهای
طایف
##قص
##پنج
راش
همگن
مولی
المن
دیسی
##انهی
##اصغر
فروت
چهارصد
عاملهای
متوسل
مخلوطی
سوپرمارکت
مسیریابی
جلالالدین
بطل
مهریه
کیخسرو
پژمان
کازرون
منهتن
بلورین
اینچنینی
لنوو
اریان
##que
##بانان
سوشی
فروغ
ضدالت
کرهشمالی
میزنم
عطا
دبیری
ایزدان
بیثباتی
تابه
##یدیم
اناه
##لیز
گردنه
خطه
پاسداری
درمانگاه
چرچ
مورخین
میتس
کاوشگر
تاران
عیدی
هجمه
##وفه
##ینال
##المن
بخرند
انجماد
عبید
دیدی
خواندنی
مهراباد
رادیواک
گیریهای
فرانکلین
انزیمهای
اکتشافات
لژیون
جگر
سیره
##زول
##ذری
اقرار
نابار
نتایجی
مادون
هاچ
اسطورهای
رانی
هرا
##۳۹
روزانهی
افسری
برنمی
پرهزینه
##ology
کید
##گال
خودگردان
ارثی
ایرادات
سیام
عدس
شاهدان
سابقهی
فرامرز
معلمی
یزدانی
comm
ایديولوژیک
mark
دوستداشتنی
تنفیذ
kh
##شود
##الحه
مدون
عنوانی
اهکی
اردلان
کلیسایی
گذشتن
کابلی
ناپذیری
قصههای
رایتل
##زوفر
دد
استریم
اوازی
##برگر
گرفتهاید
ريوس
##فونیک
۱۳۲۳
خوشمزهترین
دوپینگ
##بیاسدی
cre
١٥
ابله
باروک
گلزن
تماسی
نقاشیها
فیلترهای
تالیفات
لاکپشت
دربرابر
اسپرانتو
کثرت
نيو
بریدن
##اهام
##نگان
دلیلش
توربو
اموزشگاه
براوردهای
خلفای
ذرهای
شلاق
فلی
پانت
##ta
##ya
##یرگی
تولیت
شهربازی
تیموریان
جلگه
نیروگاهها
##rol
ارزشیابی
زبالههای
خارقالع
خشونتهای
عواطف
هالو
بههرحال
ابوس
سیامک
##ارتا
اخرت
##کارا
کسروی
۱۸۸۰
لااقل
تریل
اگهیهای
لغتنامه
بهاره
##ترتیب
مردود
میزانی
کرهی
دامپروری
##aster
بیتال
ایلخانی
خویشتن
موازین
هیيتهای
یوری
##گود
##les
##غرب
##ریبی
##ازند
مجنون
شهره
کنندگی
##سرخ
نمایه
برنارد
خصومت
فضانوردان
بینالنهرین
you
##دادی
استوری
اندرکاران
پزشکتان
سختگیرانه
مناسبترین
خوششان
بلندگو
ایلین
##خواهانه
زیرساختی
ايتلافی
بهسمت
فتحعلیشاه
سرفصل
انشاءالله
جونی
خاله
فيود
##پزی
راج
##روپی
ایینی
ماهور
غیرح
تیرهای
پیوستگی
سمع
تاثیرگذارترین
مرجعیت
pal
##کوم
##۱۹
##ایستی
براک
##ازول
المال
متاخر
پایهی
ارزانی
درجهی
نعمتالله
ریزگردها
ماقبل
جال
##۸۷
##۲o
براند
##ابوری
تعمیق
نمایشنامههای
کرنش
احمدشاه
خلیجفارس
پورنو
موزهای
حلقوی
ندا
گسی
##نگر
##pm
##انچه
##امر
نیوج
اپید
محسوسی
حداقلی
احساساتی
شبهجزیره
۳۸۰
مکاتب
مکاتبات
ابومسلم
شکوفا
بازپسگیری
کامپوزیت
##ابنفش
di
بمال
جبل
سارد
##نور
##شره
بهتن
همپیم
حقانی
سفلی
البومی
چرمی
بگذرانید
۱۳۰۷
خشونتامیز
زیارتگاه
سوغاتیهای
جنیفر
نايب
mag
ساد
میدر
میپذیرند
مسواک
##بهترین
نرمی
اروند
شوکه
بدنشان
ازمایشات
قادرند
هرچقدر
دربارە
هیپنوتی
black
سولفات
میثم
پازل
نامريی
ليو
##راپ
بیخوابی
عمار
سازها
ایجاب
مهارتی
بیمهگر
گیاهخوار
قمار
تاکسیهای
هورمونها
فراخوانده
نطق
sur
##مقام
##زارد
بیطرفی
متاهل
##وهانس
پایانههای
مدتهاست
اردک
مالدیو
برداشتهای
نانومتری
خواندهاند
سراغاز
میخواستیم
بلوچی
باتجربه
وسترن
گالی
##یدرو
کمری
نبودیم
نظریهپرداز
بشکهای
##نشینان
فیلمنامهنویس
مترادف
##ویسان
افتادگی
##اخلاقی
شیرهای
وظای
گشتند
حیواناتی
تانز
قارچی
سپهسالار
اطلاعیهای
شاهکارهای
کلانشهرها
پنگوي
متاکریتیک
مپ
یوبی
مدور
مشعل
سیستانی
##گردند
ناگوار
دورهها
طریقت
تاکتی
گازها
سکون
صفحههای
غایب
##حاک
فعالانه
##مالا
اغازگر
پاراد
فارابی
خلوص
وارنر
دندانپزشک
سونوگرافی
روپیه
بهدرستی
الاح
بجنگ
زری
لیدی
چا
کثیری
##کیا
##توز
##قههای
##ژهای
بهانداز
ازبین
##راوت
کندن
نداره
جوابی
پلک
خروس
هاوایی
بهمعنای
کرباسیان
pa
##دف
##ارین
دیابتی
ایب
تفسیری
برجها
متنفر
ایدرو
حافظههای
چسبیده
فیروزه
کوانتوم
بورسیه
لوکزامبورگ
##rs
فرابنفش
سوف
میداده
صحبتی
نوربخش
اسیبدید
بهعلت
قابلیتها
##ows
عروسکی
برمبنای
هامون
##وشت
##چنین
میو
مومنان
اوازه
##رساز
مطیع
اذان
##نوشته
خاکسپاری
گیمپلی
فیبرهای
end
رولینگ
شراکت
##out
اسوده
دوخته
##ریکا
بالار
بالهای
##شرقی
۱۴۶
مدارکی
اراسته
ترشحات
##تینو
کاشیهای
گودال
مقصدی
طلسم
نیوجرسی
day
هیک
##کریت
##جج
##جرایی
دنبالهای
فشارخون
ویرانههای
۱۳۲۲
فهمیده
char
##اتلندی
شستشوی
همجنسگرا
گجتهای
خصل
ذن
پویش
##اگون
##سنج
##fl
برکه
توفان
##وکاست
اکست
بدنسازی
خوشبینی
المپ
بفروشند
دراگون
کتیبهای
دمکراتیک
cy
کریک
##طول
اوز
ناشن
اپیک
سمتهای
قسط
بهمنماه
ترکیهای
عجیبترین
راهکارها
ترانزیستور
bas
cro
اینهمه
نوسنگی
##امیلی
شدنش
کدگذاری
موتورها
اسکاتلندی
گیتاری
نواورانه
کشفیات
mob
بوف
تازی
##مغ
مناصب
رسانا
فیلمنام
نکردهایم
ولد
رونویسی
درختهای
شنیدهاید
##امزدا
عابد
هشی
کهریز
##تیان
##اقت
بلوری
پارگی
برخوردی
خالقی
سمینار
کانس
کذب
گریم
نامتن
ابخ
سبحانی
##ایرانی
پیکار
رتبهی
پیشرفتهتر
۱۹۰۱
##تراست
دجله
اهورامزدا
dc
بگردید
طمع
واید
چاله
##وژن
برین
##سیسی
دیبا
احم
##وکوک
##سیسکو
هیجانات
کهنسال
درجهای
فردیناند
##گها
##pg
##ذل
##یشنی
افکن
##هیچ
##اکیه
خانق
اجرام
حججی
سلیمی
یخچ
عاشقان
ضعفهای
ریشهی
طالقان
هلیوم
نواخته
جیک
چریک
##وزین
نوازی
رویان
تجریش
##ont
نویسندهای
فرارو
خلقی
stud
ابلاغیه
کاندیداتوری
پیچیدگیهای
مساعدت
منهدم
انتیبیوتیک
رقیبان
رعد
سمن
ضرایب
٣٠
چکش
##سبان
دستشویی
مرشد
پیشوند
گفتوگ
مهتاب
اورارت
قلههای
کیلویی
بردگی
##زبانی
ایستا
جلدی
اعتمادبه
سانتا
مشروح
rev
تبیان
عبدالعظیم
اختتامیه
یوسفی
##جوش
##عبی
##عاملی
برتون
همجو
##ویلی
بخرد
##ینیو
هوگو
دخترها
##ماهه
واقعیتها
رمزی
بافتی
##ild
رحمان
حوادثی
لوکاس
تحریریه
تشریفاتی
gro
جیسون
دودی
مرفه
پوت
میخی
ارب
علیاصغر
موفقتر
خاموشی
سرکار
زردچوبه
میتوانستیم
غلامعلی
تناوب
مستضعفان
زاید
انور
دوس
ناحیهی
ابانبار
کرسیهای
استنلی
کشمش
مستعمرات
pers
ثرو
##اگو
##دشت
##son
##۱۲
گرهها
اعظمی
پرند
##نجد
بارون
زندیه
ناظری
سبقت
جشنها
منظوره
تحصن
جداول
##حسینی
شانسی
امیران
مونترال
قايممقام
همجنسگرایی
ببندید
انهدام
ملبورن
مازیار
ازدیاد
زوریخ
si
##ادند
##ریو
بودی
فرشهای
##نگرد
سیارهای
رایدهندگان
تصویرسازی
رامسر
انفلوانزا
mc
لگاری
کوزه
##ood
##ke
##ینگی
امال
انتساب
حسرت
جوکر
تسمیه
لوتر
مولتی
سلا
ساکس
کک
گنجی
##نوری
معمای
بیع
ابوط
##ازیس
اولاد
اختی
اهنین
مالیه
ممکنه
مفاه
نبوی
نمایشگاهها
برمیدارد
فنا
یام
نمرهی
ماکار
غیراخلاقی
ناچیزی
ستوده
ابروی
افغانها
اندیشیده
بیندیش
نواوریهای
یدک
الکامپ
برگزیدگان
اریز
جیرو
داس
فايو
هاي
##کوی
##بز
##جره
##چند
##work
نظرهای
کوپه
علیال
##گاوا
مصوبهای
du
نتر
##يیک
##۴۵
خودپرداز
گراند
باربار
##کارانه
توانی
نگهبانی
سیدحسن
واقعیات
##شهدا
۱۳۱۸
قصیده
ذوباهن
ورشکسته
مافوق
بهتنهایی
خاوی
##پال
راگ
جمنا
میدانستم
صحبتها
پوکی
شاهرودی
فبلت
گفتوگویی
cat
xbox
تبه
٢٥
##وایان
##ux
##fs
ازنظر
روتر
ایینه
دیدهاید
تاریخهای
سنتور
اجراست
##ism
کرهجنوبی
بساط
نفوذی
وانگ
وکلا
ویديوهای
دادوستد
قیا
##دارد
نیلی
فروری
اقتصادتهران
تفاه
##قدری
درخور
مولکولها
خزانهداری
xper
غنای
لیند
ممالک
##جمان
##ایاتی
دورافتاده
##کتهای
##کرون
هنگفتی
مارگارت
پلههای
تهیهکنندگان
##عمومی
بخواهم
وجهه
شبهه
##لاغه
فرکانسهای
ساقط
قلیایی
call
شید
انتر
زیارتی
شکلدهی
پاسدار
کنارش
تاییدیه
میثاق
پیشکسوتان
پیغمبر
##سافت
موجه
اسراف
مسعودی
ادرن
رویههای
ورژن
حملهای
نقشهبرداری
۱۹۰۴
شریفی
بفرمایید
١٤
اوتیسم
##نامهها
رفتارهایی
##ley
اژدهای
##شونده
جستوجوی
sol
هانی
وایل
##گشا
##ادور
باارزش
ارادت
##نیوم
دانگ
سپهر
ملای
جاها
مخاطرات
##بابا
۱۳۱۷
##پلنت
تبلتها
ca
ms
چان
براه
حسگرهای
غارها
کاستن
tech
رنگر
بوع
حقی
درها
##ولوس
بیزان
سرحد
مدیا
##شانند
ابریش
تقوا
کوبی
تکانه
پادکست
فولکل
جالبترین
زردالو
گچبری
پینک
تدارکات
نتوانستهاند
میگنا
بهسوی
شینگن
۸۰۰۰
##دور
##پک
##ton
##mer
یکطرفه
##تیها
سپیده
نمیگذار
اسپانس
لباسشویی
##eld
سکهها
شاعرانه
شباهتهای
خدایا
تزیینات
ببخشید
شسته
پکی
##ep
##الار
دوچندان
##وسن
دستگاههایی
موسسههای
##وپلا
##ream
نانوذ
پرتفوی
دریاچهها
کاخهای
پروژهی
star
استودیوهای
قارچها
چاشنی
ضدان
فریت
کفا
۷۲۰
##راد
##لکس
##عر
بازرسان
##ویدیا
شمارهی
پالایشی
بهرامی
وسیعتر
مغایرت
مصونیت
بمالید
طریقی
غیا
غیب
##هتل
##لاش
علویان
اندرس
نیروهایی
تحصیلاتش
انگیزترین
iso
پاستور
اعیان
پلتفرمهای
١٦
چله
گپ
گوری
##پیر
امنا
رسل
سیسی
میخند
سریانی
حرفهایی
نورون
اسپن
تودهای
رفیع
ضحاک
۷۰۰۰
##ضرب
##پسی
خودسر
##اتیسم
على
ملات
اوره
کوتوله
دستاوردها
فیلیپس
دبلی
نیشابوری
دالان
دیلمی
غریبی
کمابیش
تاتی
غوطه
لخته
دروی
##روض
دیدگان
میلگرد
الفبا
منزلت
۱۹۰۳
بمبهای
بشناسیم
فرزانه
رغبت
bu
سوب
##بارت
نیشکر
مسلسل
کمبوج
۱۱۳
بیرح
زمام
ویروسهای
درازای
کاکايو
اتکایی
فندق
توجیهی
فخ
فولی
پوک
##دلی
##جوری
انویدیا
بالاب
معتبری
بیران
پارکها
انتقادها
۱۳۲۱
شکارچیان
درازا
کمونیستها
قنبری
ژاندارم
##ةالمعارف
vis
نکن
##ژو
توفیقی
ناممکن
بخو
دانایی
دلت
غیرمنط
شورشهای
۱۰۰۰۰
##oll
##پارس
خواستم
تفرج
فضانورد
ارسنال
ظالمانه
ژی
گای
سالمی
زمانبر
ارزنده
کرن
نیمروز
قابوس
مامان
عینا
بابایی
فرارس
متروکه
عطفی
فیروزکوه
فلوید
بجنورد
کمبوجیه
موومان
سرشان
##قلعه
نظرشان
##گرفتگی
##اشتند
کنسولی
اشکارساز
جمهوریخواهان
خبرداد
سانسکریت
وداع
المپیاد
ثمره
رندی
فایدهای
##بالی
میزیست
##ریها
##ختر
داعشی
مقعد
ساختههای
کلات
خانمهای
##جمعی
درونگرا
حجاز
صبحگاهی
افتادهاست
پهلوانی
سیلاب
بفروش
میتونید
muse
خمین
کوسه
##our
##اسا
فرشاد
نمى
مصالحه
خواندم
بسوی
مشروبات
سوزنی
تستوسترون
فرکانسی
بامزه
mm
فلام
هاس
برومند
##کنولوژی
سرگ
پرم
جامعهی
فرزندشان
روسپی
صفحهن
پریود
شکنی
##ایک
میرک
##اختیار
اقصی
قرارگرفته
##واش
دهانی
مینش
کدامیک
##rop
سانفران
بوگ
تپش
رستورانی
میگذاشتند
مجال
زیگ
##وکند
خریدن
خوانین
امورخارجه
سقز
سیرجان
پرستاران
وسطایی
ناهید
مبادلهای
##ove
##ption
مخروط
dv
زال
ستوان
مادا
##وریسم
##گریزد
جهانگرد
خلخال
برنامهریزیهای
بازگردند
پرخطر
خشایارشا
بیتالمال
خلبانی
گشاد
##ایران
دربردار
##ورات
##شتهای
##ولهها
نقاب
فقهای
ستود
کاملترین
گذاشتیم
مشارکتهای
گذشتههای
سانتری
##پارک
برگردیم
مغولها
میشناخت
واسطهای
تزیینی
اندرتی
بایستد
اسکندری
تظاهرکنندگان
ناسازگاری
مرضیه
act
sd
جسی
خشتی
زرق
ژنی
۹۵۰
درسته
##کتریک
ارتز
##وکلا
مواظ
کنندهی
##ital
اروپاییان
پلاسم
غنیسازی
ایکون
گوساله
گابریل
##زیل
افطار
##ایدی
نمیشن
فیزیوتراپی
جبهههای
سلیقهای
نشانهی
زیرمجموعههای
پربازدید
نعمتی
نواقص
گیتی
##۱۸
همبازی
التو
بخشن
روزمر
تعزیه
لوگو
الیاس
بکاهد
نظریهای
عفاف
توجهات
کسبوکارهای
بیندازند
استارتاپها
تعزیرات
xperia
زبیر
سکنی
ظل
پرای
##her
دستشان
پراب
ضرورتی
جلفا
پوستتان
جالبتر
خیرین
سوءت
فوتبالیست
تانزانیا
تین
##فعی
##هایو
بازکردن
کلهر
گلن
حلقهای
نورمن
سلامی
لوپز
ایمپلنت
شخصیتهایی
##lex
نابغه
پوچ
گناباد
فرسودگی
ایمیلهای
سارقان
میترا
نیترات
ویدیوی
جادوی
یونیور
نیازمندیهای
bus
دیری
##تکه
##مرکز
هرجا
##رانگ
عبدالب
سوزانده
access
الکترولیت
غواص
##حاضر
وظیفهی
سرگرمکننده
هژ
مومنی
افراسی
سبوس
سیاستگذار
چشمهها
جویدن
اسیبشناسی
##گلوبین
تهدیدها
سمفونیک
وارن
یکسانسازی
##رستوران
بهحساب
تنبلی
اعمالی
ورقهای
خواستید
##خصوصی
اونجا
قدرتمندتر
۱۸۷۰
ماکسیم
پرتغالیها
راجرز
چریکی
اختراعات
تارانتینو
##ek
انارشی
##باخ
ترزا
منتشره
نابینا
معلولان
رضایتمندی
حفرههای
بیهوش
هولوکاست
تعلیمات
زارع
شفاعت
ستیز
تاد
##طرب
##۹۵
##هاء
موکل
کلکسیون
##ستیزی
شرور
پیرام
دستورها
تدفین
ادعاها
الودگیهای
عالیرت
بقیهی
لیاقت
مکارم
##نژ
##پرده
نماهنگ
بیابند
گراهام
سوسیس
برگزین
یافتهها
خردمند
سالمون
کلانتر
کافههای
راکد
خرسندی
پلاتین
ملزومات
بویه
جنابع
تجارتی
بلاد
نشیمن
گزارشگری
گلوتن
فوتسال
نباتی
تيودور
متاسف
کیسههای
جاذبهها
اسکیزوفر
##ومرث
ابمیوه
پالت
کوا
بهاین
بربر
نیابت
فرانتس
جهتی
بازپ
ارتفاعی
نخاع
میانرده
نورث
موقعیتها
ریزیهای
دستورالعملها
۱۲۹۹
سجادی
بپذیرید
اندرتیکر
mal
oled
یورک
نظمی
##اطی
##اپی
شبکیه
دیدهایم
کاملتر
نگهدار
عراقچی
ولادت
##وپاتی
کلاژن
گریخته
##فلد
امانويل
منحصرا
علاءالدین
open
پوسیدگی
بیرانوند
صفحهنمایش
جنابعالی
گلاس
ماکو
##قلاب
معاونین
گیلانی
خصمانه
ذايقه
وظایفی
power
چیه
##امپر
باتی
همکلا
مدح
اتاب
کلنگ
ساعد
پلکان
خوشبین
##فعلی
الکترونهای
##وینت
##itt
صحنهها
کاتد
قیچی
صوفیان
میپوشاند
غیرمنطقی
شون
قریش
##طانهای
استوانه
کارلو
میانمار
جزر
مادرزادی
بوهم
تپهها
رکوردز
میتونه
رحمتی
fatf
سونگ
قدی
لاب
گاي
##رمانی
برام
براش
##لیتر
امب
انجامش
تلکام
مخالفتهای
پیشرفتهترین
۱۳۱۵
والدینش
کلاهک
دیلم
ليوناردو
سانفرانسیسکو
full
##ینسکی
همیلتون
معدل
فرون
هرمان
##ندهی
##ناپذیری
بینجامد
##وبند
اندری
فعالسازی
نخورد
ملتی
##ery
تلاط
تیرانداز
سخنرانیها
شغلهای
منفجره
امریکن
پلهها
سوانح
چروک
##ram
##لاکس
##یشناسی
ماوس
پرستی
جنت
بلات
تفصیل
فوتون
فناوریها
مراسمهای
رکودی
دبیران
الگوریتمی
ماجراجویانه
مریوان
اتوبوسرانی
ماژور
صرافیها
میفرمایند
نگذارید
##اگ
##فک
رافا
تاق
الوار
دوستانی
تنبل
اختلافی
##اخانی
امرار
گربهها
انطاکیه
پروانههای
ترجمههای
اسلوونی
sub
جاش
وکی
همپوش
اوايل
ترن
مینمای
وظیفهای
زاینده
شیمیدان
مکانیزمهای
گوستاو
اسفراین
محمدمهدی
تعهدی
شیاط
##شوند
##الیستها
مشاج
بنبست
پروبی
گلخانه
##جرم
مکل
##جمع
مارسی
سکوهای
فیشهای
بهبهانی
غنیمت
iv
رگر
شیلد
هراسی
##زنده
##ایکس
اسعد
افلاین
دوستم
متضرر
اتابک
ریگان
بهترینها
تابستانهای
۱۳۰۶
۱۳۰۵
dead
دموکراتها
کاشف
میساختند
بیاموزید
ماداگاس
وبه
##پاره
مداد
مدخل
هیاه
##انسانی
تلافی
تلوی
سقفی
۲۲۵
میگیرم
حجیم
سرخس
گریگ
گریس
واگذاریها
##گزاران
پررنگتر
نیفتاد
هیپنوتیزم
kn
صمد
قندی
کورد
گاد
##لوس
##نفره
##لاشی
ایها
نشاسته
سفیدی
تشابه
نوشتم
مسيلهی
##کشاور
نهادهایی
کیلووات
هماهنگیهای
کافر
مینامیم
ترازنامه
کارشکنی
##مودین
فامیلی
وجو
کثیر
##نات
بهمنی
برات
##ونلو
اواره
دستبند
##ناصر
##وهری
ترانهای
تعلل
##اپا
جنگید
سینوس
چنینی
رشتهی
نبوغ
ماندنی
##وپایی
off
درخشندگی
حیثیت
ادامز
اسکناسهای
بفهمید
فزونی
ذوالفق
بویی
هود
ازاری
##ودبلی
موعود
بیوت
مجانی
بازن
##یداسیون
کیوتو
استانداردسازی
کافهها
نعناع
پردازندهی
اردوگاههای
بامو
ضایع
لثه
##فردی
##۳۸
نیاوران
افعال
متدین
پیگرد
مصنوع
کلبه
هزارتومان
گلای
بنیامین
بشردوست
وامها
میرفتم
برگزیدند
رکورددار
کنسرتها
گیمرها
میکروب
کبابی
سرگرمیهای
برشمرده
خلاصهای
بروکلی
نشیب
دوردست
مفاهیمی
sim
ضمیر
غلاف
يی
##لنگ
##خمی
درت
امفی
افندی
مجرب
مريی
پساتح
بزه
ترمودین
مرکل
غیرجاری
##era
##alk
بگیران
اتوماسیون
پرسشها
۱۹۰۲
فتحی
ببندد
کرانههای
منشعب
هاکی
ونی
بودجههای
هربار
مقب
کلوپ
##ادران
جاناتان
عدلیه
پاشی
رژیمی
صبحها
عبدالح
##ute
##ember
عطار
پراو
حریفان
ابوعلی
نانوذرات
جباری
دادی
نغ
##ho
##bl
برید
پیج
بازارچه
میرزایی
گلوت
##نتز
سراج
زیباکلام
کلاغ
ریسمان
ویرانگر
توربینهای
ناسازگار
##فورماتور
دمی
زبر
نکسوس
##گى
##پژ
استرا
نیس
دوطرفه
دستکش
ادوی
##رسانهای
ماهان
سنوات
نمیپذیرد
##arch
نیروهایش
ابرها
استانداران
الگوریتمها
مداخلات
بمانیم
games
متبوع
اتلانتیک
خانقاه
ابریشمی
##pc
همزمانی
تقطیر
همینجا
نقشهها
کودهای
المانهای
مبتکر
مانويل
گیاهانی
جیغ
باتومی
یورویی
اقساطی
اساطیری
رجیستری
بکنم
##يیس
اسلح
هیاتی
ماهوارههای
تعریق
میخورید
هاوس
۳۴۰
مضرات
ریهها
مقالههای
گلپایگانی
اوقاف
واد
٢٠٠
بهگفته
نامشان
اتشین
##وبیا
شیار
بستهها
سفیدپوست
الموت
پیشبینیها
leg
کنجکاو
tri
پوم
راغ
امونیا
##عتبار
گفتید
تعج
همانا
افزودنی
بدهکاران
کنترلر
ظرفیتی
رزومه
داروخانه
مضطرب
کابلهای
سرمربیگری
درباریان
گودرزی
پساتحریم
چاب
۳g
##اریم
میره
روتور
##عدستی
نوینی
بنف
سیاق
پشتکار
متنهای
ردمی
سلاحها
۱۸۹۶
زخمها
متداولترین
غفاری
che
face
ضابط
##پوس
خوشهای
نامسا
شهرتی
سیگاری
اسپارت
پناهی
افسوس
انزوای
مناسبتهای
بشناسد
صنایعدستی
عقیدتی
جونیور
sal
تایت
تزاری
تامپ
گلیس
##يیدی
##ونین
##الیای
##ایشه
##ملین
تعبیری
##وقوع
سطل
نرخها
سینماگران
کلیدها
inf
سختیها
قدمهای
متقاب
بیابید
رشیدی
معنادار
لاشه
اسپیکر
free
ثل
جند
ذاتا
کسان
##ژان
ازین
##یتد
دوشی
بالتیک
۱۴۸
افتادهاند
سپردند
میسوز
mt
nor
سغدی
نیچه
پرل
برخیها
فارنهایت
حسابها
حملههای
گذاشتم
مراجعت
##المقدس
دوستانم
۱۳۰۸
۱۸۶۰
کاشیکاری
شاغلان
ماداگاسکار
cal
تاند
رندر
زهی
##خرد
انژی
##اتیت
##تیجه
##یلهای
اوهایو
دلبستگی
قراردادهایی
کاتولی
ونقل
نعمتزاده
الومین
اسپانیاییها
نگارنده
##ubl
منازعه
گوردون
جاندار
رژه
##پند
##اتس
کارب
متک
پسزمینه
##کیها
ترند
نظرها
##سرایی
مالاریا
##بورن
رستگاری
گنجه
خواستهها
سونامی
اصالتا
علاقهمندی
note
تجمعات
دايرةالمعارف
اى
استوا
##گرید
ایرادی
سوخو
تصمیماتی
انسانشناسی
پیشنهادها
اتاقک
خلیلی
گذشتگان
تزریقی
چارچوبهای
نمیدانستند
مگاپیک
ژرژ
موسیقیدانان
ارتدکس
اکسپریا
افراسیاب
ننگ
##یف
##سبورگ
##ware
باث
اوای
بیوه
شهرنشینی
##واگن
اندلس
غیرمن
فروشان
خبرهایی
محمدخان
کیومرث
رشتهکوه
برادرزاده
ویترین
سمیر
اوپو
تکنیکها
معیارها
صدیق
رفیعی
بوندسلی
دبلیودبلی
##کشاورزی
na
ایدا
دستم
سوگواری
دلچسب
فروهر
##جاعی
فراخ
اسپایدر
حملهی
##ors
هشدارهای
مجهول
میپرسند
مارکسیسم
دهقانان
گلپایگان
تراکنشهای
همپوشانی
شیاطین
خیری
ژول
##دد
نیاورده
بخوریم
جمادی
کلو
نمییابد
۱۴۱
پوشاندن
ازدست
روندهای
بیتالمقدس
سقفهای
القاب
##کنها
بدبینی
ساختهی
کلانی
وریدی
کریدور
فصلنامه
دخترم
##شدهی
شاخصی
برادرانش
تواناییها
ذهنم
پروژههایی
سختیهای
هولناک
لارنس
دانیال
دوقلو
برافرا
فیدیبو
fin
جامی
##واتی
##ls
میگرفته
همبند
داوید
سرریز
دوخت
دادهام
تبعه
تلاوت
۱۵۸
کیانی
موسولینی
روحانیان
دعوای
غلطی
۵۱۲
مادربورد
game
متخلفان
##ham
##ارههای
درنگ
میهم
بدعت
بازنمایی
کامنت
موادغذایی
##وسیان
##اظم
مطلقه
دماغه
۱۳۱۹
بکشاند
فارغالتحصیلان
پشیم
مفرط
ربانی
غاز
پپت
##گوت
میج
کنک
معاین
پسرم
##گوشی
شمرد
سلسیوس
تکلی
سامانیان
تقویتکننده
ایلان
##ada
بندیهای
طیفهای
ردیفهای
اسطورههای
ترابرد
university
hotel
عالیرتبه
##ner
##۳۲
متراژ
نشون
##بردن
میخرند
##ونته
پدیداورد
لغوی
موشکها
جاذبهی
متانول
مقبولیت
tcp
بفرست
زدود
قالبی
لخت
لولهای
بهنوعی
فرجام
بیو
متلاشی
کمنظ
##خیزی
مردمشناسی
کتابت
موقتا
۱۳۰۹
اعطایی
##ift
میبندند
قایل
باطن
##اتن
سالمند
ارین
##ستانهای
پسین
##فاوی
صفهای
ماهیچهای
کرباس
پیمانی
استراباد
پناهجویان
ظهیر
خطرناکترین
real
الاینده
اتشنشان
غضروف
بخوابید
رادیواکتیو
مگاپیکسل
ret
عایشه
غلت
مکران
گرافی
##فیل
بهیاد
##تماعی
ساختهشده
سوالهای
نشستند
بستک
سرکشی
۱۸۹۵
فضاسازی
الاسکا
واکر
برامدگی
ابوموسی
##form
اختیارتان
ig
ng
rog
خیمه
ودی
پوری
##رخی
##ینههای
بدخ
ریزه
خرچنگ
##ins
موسیقیهای
##گانیسم
میگفتم
۱۳۰۲
نیکلاس
خندوانه
اسرارامیز
ولوو
تبلور
یوبیسافت
گیتاریست
شاند
##رنج
##ینک
روضه
خودشی
##یکو
اعاده
سرمایهها
محمدبن
متمم
اناهیتا
نگو
پک
##ایزی
کارخانهای
سرامد
متشک
فروکش
میرزای
کامیک
گازرسانی
اعتبارسنجی
دبیرستانی
مالیاتها
سالمتر
۱۳۰۳
رومیزی
art
فیروزهای
مودب
باتلاق
درمیاید
کوزوو
گماشت
mult
ثباتی
هاک
واه
ژولی
دوسر
میکروم
پایتون
##بودند
میراند
مذکر
قلاب
احسن
طیبنیا
##حمدخان
محدث
یقینا
ثلث
طری
مانت
انری
ایپی
هنگفت
منتشرشده
صدایش
دامداران
فولد
عسلویه
گردشگرانی
اخترشناسی
جاستین
جگوار
یاسر
##ینیا
ازش
##رفهای
##کتوری
نقشها
فقها
##ازمایی
بورژ
رازهای
لنفاوی
دکترین
بشناسند
انستیت
ناباروری
national
pen
بتون
شرافت
پریس
##هزینه
##ساند
##ject
##یدین
العد
فرمانی
سرطانهای
ترانهها
##ربایی
شهیدی
دریاچهای
سنتر
سامرا
رودکی
متعجب
الگوها
هتلی
پرجمعیتترین
af
دمن
غرض
پاند
##شمی
کهکش
انفع
مردن
سیگ
مردمسالاری
تاریخنگار
قبلتر
کیوس
خاطرهای
وسايل
رخنه
نهادن
##ush
جاسازی
متصرف
صمیمیت
لالیگا
دالی
گوم
##رفته
##گرینی
رواق
ارنج
دستهی
نوستال
##دیلی
کوشک
طبیعتی
سهماهه
جشنوارهی
مظاهر
جفتگیری
عسگری
نطنز
ناهنجاری
رختخواب
ممیزی
نصیحت
اسپهبد
da
غاری
غولهای
ورک
##چا
میفروشد
ابوح
روزرسانی
##چهار
شبح
پارادو
##ene
##org
صلاحالدین
مظفری
۱۳۱۱
هیچکاک
دلسوزی
بفرستند
بنجامین
har
sa
ti
زایش
##نع
توکل
البال
##ناکتر
احقاق
کلیهها
##let
فضاها
گیلکی
تشنه
میفرستند
لولهها
سرنخ
مسبب
خراف
دایان
##نب
##ral
##فهم
##يات
ارگو
بازیباز
##پاژ
سرعته
لواسان
خراش
جرگه
میشناسید
نوشیدنیها
اوکرای
تهماسب
بنشینند
ثانوی
فاحش
لزومی
تودی
##میا
برلی
میشم
بیگی
##باکتری
ایزن
اقایی
اعتد
ملان
کوچولو
نمیگرفت
خدمتی
لایق
صندلیها
خوارج
##press
خویشاوندان
کهریزک
رافايل
eb
mer
mit
ثریا
جلی
پشه
نماي
ایرس
نوساز
کسل
۱۸۵۰
پلوت
پارکینسون
اخرال
پرتوی
گوشتخوار
خبرگزاریهای
نتوانستیم
##oph
زمزم
اعتمادبهنفس
امونیاک
ضیافت
١٨
کاور
یشت
##شیدی
##ستای
ایوب
گرفتید
ایمیدرو
میدادیم
دینامیکی
ابعادی
چالشهایی
دوچرخ
کارکردی
رساندهاند
میشناختند
پاوربانک
شامپو
city
ایدی
طراوت
کونگ
##ووی
میم
##اتوم
پیشفروش
کمابی
شهبازی
زندگیش
مارچ
نورالدین
لوور
کاربردها
اسمک
مونث
dev
سانتیاگو
وایکینگ
نگذاشته
مگابیت
پارادوکس
den
ver
جولان
چانگ
کپنها
یمنی
##ye
##یروس
منقول
کندتر
علفهای
نمیگردد
سیمهای
محمولههای
گرمتر
حجره
##زماتیک
خزندگان
دربارهاش
حاملگی
سایش
قنا
##قس
##ادلف
##واحد
بینتیجه
شنای
اغازی
سیاستهایی
مدارا
برادرم
خدمتکار
گذارده
طلبانه
بنویسند
شاگردانش
ناصرالدینشاه
میکروسکوپی
فولکسواگن
الرحمن
استنتاج
شها
نکنم
##۵۵
دراک
یکمین
جمالی
پایلوت
صورتش
##ابلو
اختلاط
طبل
ستادی
منظرهای
تسنن
دقیقتری
نمیدهیم
بازداشتگاه
پردازشگر
دربرمی
یدالله
خودمختاری
اتکای
ورسای
عاقلانه
دوبرابر
اهریمن
high
چیرگی
کاتی
شدهترین
نماهای
دیگو
هستن
##وشیما
میلیامپر
##سانان
##وکراسی
##نتس
مدرسین
ایلخان
باستانشناسان
اسبهای
سیلور
موزون
##قلیخان
حشمت
محاکم
سوپرمن
واکاوی
ضایعه
سازوکارهای
لوییس
سرگيی
data
غشاء
چابک
##۴۴
##ردار
##اکار
ماهشهر
رسیدهایم
جوایزی
پایهگذار
مولر
درخواستها
اسنودن
واتسون
road
pm
زلال
عرفی
عارض
فتاح
لیتی
هوک
##زیا
کشانده
فروزان
موجوداتی
دورانهای
خونس
ظرفشویی
شدیدترین
هیاتمدیره
نگرانکننده
ندهیم
گرافیکهای
خویشاوندی
همتایان
تیسفون
tv
جبال
##uch
##ولاری
##لاست
نیفتد
##اسه
کارتن
الحسین
گراز
گلش
عرضههای
##سلمان
جاذبهای
تجهیزاتی
فیلمهایش
ملکشاه
شعارهایی
میاورید
مجسمهسازی
پرافت
وخامت
اناتومی
نوکليوت
پرانرژی
ابوسعید
طوم
عفت
##یو
دربیا
بریدگی
اینت
تنفر
نظران
تبانی
ماندگی
شاخصترین
پارسا
مزایایی
خرابههای
غزالی
رفراند
بنچمارک
بوعلی
پیرامونی
rest
خویی
ماین
##way
##امات
داش
داون
بیضه
##نیس
##فیوژ
پربار
پریدن
بنه
##پاگ
##جمعه
تياتری
کشیدهاند
۱۸۹۹
co۲
اسکرین
صحیحی
gps
##اراتی
روا
نیای
میکر
دورود
دانشسرای
بیمع
سیناپ
شوگون
تفویض
مینگ
##ایفای
توپولوژی
انفولان
نمیکردم
نگارگری
بنگال
کوهستانهای
هاردی
غیاث
تراک
جابر
زعم
##نیت
##سس
میفرو
استپ
##روج
یکچهارم
روباز
سیالات
##ملوک
قبضه
پسرها
##غلات
بیاط
مقدور
۳۶۵
##پیکر
برنزی
مکررا
سپهبد
میشنود
بشردوستانه
جفری
دیتر
۳d
##پلاس
##ck
قرارگرفتن
میرفته
##جاذ
زننده
فلسف
طولانیتری
اروپاست
##یانا
وارون
ارزانقیمت
۳۷۰
##ement
مسوولی
اسلاید
ادامس
میکروفون
جسورانه
نامساعد
خاز
خاين
زکری
##ازا
پسوری
بعدش
مهل
حکیمی
نمیامد
##گویان
عصمت
افتابگردان
میتوکند
انیمه
خرابکاری
فستیوالهای
غیرنظامیان
جاودانه
##ازدگی
میمیرند
بهاندازهی
es
فناور
الوند
ارانای
نامط
ساختهای
##درصدی
ارتشهای
کلوب
بلخی
قطرات
نیازمندان
طرحریزی
بحثبرانگیز
۱۸۹۷
مطلقا
تحریرنو
بایستید
تفاضل
vol
شلم
صامت
گچی
##کامی
##چری
استدل
میشکند
میتوانی
مروان
رسال
فیلادلف
مستطیلی
اورک
اکتیو
پلها
استخرهای
سرطانها
فنر
سبزیهای
اتومبیلرانی
اندامها
ترانسفورماتور
international
دیشب
اسکیزوفرنی
خوری
میشدم
محج
##فرهنگی
سوفی
##شرق
پاراز
اکوست
اذوقه
ناتنی
ماتری
منسوج
خشنود
بفهمیم
بدافزار
بغدادی
مورت
پوزه
کدی
##ومهای
##وموتی
##یاطی
مجاب
مشهدی
واقعیتی
چهرهها
بگذارم
سدهای
فینیکس
ویديوها
واکسین
میتونیم
syn
john
میاموزد
windows
lg
rob
خاچ
درازی
اماس
معیاری
دانته
##وبیشی
جهانگردی
چاپخانه
۲۴۰۰
ذهنش
نمونهی
نیویور
اتومات
سواپ
شعارها
مجسمهها
تخفیفهای
phot
فرارسیدن
with
بپوشان
جردن
عاص
فولیک
۴۲۰
##no
بهانههای
تلقین
##رفیع
باغداری
اختلافاتی
نابجایی
سرخرگ
اوپن
ang
ابراهام
مینشینند
مارکسیستی
کرسنت
لوایح
الیاژی
li
mp
zen
وش
٥٠
##ng
میوهای
اجمالی
شورایی
##ايیک
جوانها
بردهداری
مجوزها
مشروب
مناسبتری
اویخته
api
راگبی
dig
حوله
سزایی
فونت
##لوم
##ماهی
تبدیلی
ناعادل
##ويیدی
##مرور
جاییکه
میباید
روسری
شارپ
ادموند
ناقوس
تیزر
فنلاندی
عیوب
اریزونا
اسپنسر
جینی
جراحت
ظن
کولین
کنترلهای
سردشت
نقدها
استعدادی
apple
فتوای
مولاوردی
تاکتیکهای
طریقه
نلسون
٤٠
پدال
##بخ
##bi
درایت
همزیستی
محاور
الشی
اسوش
میکاهد
ابنیه
تراری
فروشگاهی
حاضرند
قلعهها
گستردهتری
فروردینماه
ماتریکس
میکروار
موظفند
پسندیده
جیرفت
گوانگ
ماوراءال
vr
رکس
وایفای
پاسی
گدار
##موم
##حانه
رات
##کنتر
اوغ
گرانت
جهشی
##برداران
مستشار
حمص
##نتین
بسپ
##roid
استقراض
نمیرسید
اچتی
جنینی
یاسوج
جایزهای
دلاور
##سواران
شفیعی
میتسوبیشی
فیلادلفیا
aug
mem
بمن
رسته
غسل
مسته
هانا
کست
##اریکا
کارول
الاب
مته
نواری
ابون
تشکلها
قدامی
صداپ
۲۹۰
تانگ
شبهنظامی
ماموریتی
قطارها
برگردید
وحشیانه
نشستهاند
میترسند
ناخوشایندی
لوتوس
مافیا
میانسال
ثق
رفاق
وعد
##uct
روبل
موثق
##تیل
کاراموزی
الشع
##شدگی
بیگل
##جهان
مرسی
هزارتن
کاهو
##واروپایی
بهطورکلی
حیف
سردسیر
ماشینکاری
منحله
نانوایی
پاییزی
اوازهای
بازتابی
جادوگری
تراشیده
سهروردی
پنتاگون
نافرجام
pan
هلس
چاد
##ودشت
##زیو
##ومون
##شکلی
انتروپی
اتات
خانمی
مقایسهای
موروثی
سمپ
حدیثی
##app
کامیونهای
واریانس
شجره
نینوا
زبانه
سندیکای
دربردارنده
رگرسیون
پشیمانی
همتر
موگرینی
مریدان
نامههایی
شکافت
شمسال
شهود
رودری
نبض
خلفی
خاطراتش
سوپاپ
القایی
قرهباغ
پرخوری
متابولیک
جملاتی
تاکسیرانی
بندگان
پینگ
ژیم
##مدار
##line
درپی
##سیستم
##اختن
##اختگان
ویو
بخریم
بدشان
۲۰۲۱
گوات
تلمود
نوشتهای
دادگاهها
فرانکو
جزیرههای
پرورشی
نردبان
میشنویم
mobile
rem
var
کژ
##سبد
##یتس
معذ
الز
ماجرایی
عمدا
دورنمای
پیستون
بخشخصوصی
تعارف
سازمانهایی
تاریخدان
کیوی
داخلیسازی
اسپیل
نمایندهای
متواری
اسفنجی
جزيیاتی
احترامی
شنیداری
صیفی
دعاوی
بفهمد
برمه
##ولند
محر
##باغه
اقاخان
کمخونی
عمری
رفتید
اورست
تشکیلدهنده
مفروض
##وجب
لایحهای
مغزها
غلامی
تبادلات
دراینباره
فاصلههای
خندق
دیسکهای
عبدالبهاء
سکاها
شگرد
غمان
فج
١١
چرت
کرف
##قارن
##سترانگ
گرادیان
دانان
کلزا
صدارت
بلندپرو
دعوی
##ife
موازنه
html
استثناء
اورتن
متفکران
میخواهی
واکسیناسیون
طه
وگاس
##کنهای
##کنیک
کنتراست
اوایی
##باوری
سازهها
نشانده
میرسلیم
رنگد
اظهارکرد
دخترک
##ena
عقود
مادهها
جاذب
مجبورند
خاندانهای
گریختند
پالایشگاهها
پذیرفتهاند
نگذشته
سجده
زارعی
مشایخی
یونیورسال
eu
part
##وریا
الاه
تمدنی
محمدشاه
مثلثی
جلوهای
خوابیده
کودکانه
سرخپوستان
اسبها
هایمان
بلوکی
راهحلهای
زگیل
فواره
ماتی
##هب
##فتح
عمقی
۲۰۷
دورهمی
میلیاردر
سنگال
چشمپوشی
تامینکننده
سختگیر
نکردهاید
##read
ریشهها
سرپرستان
##بورگینی
هالیوودی
سلیمانیه
دیپلماتهای
پابرجاست
ssd
بوریس
رحل
زیدان
سدی
ملام
##چوبی
معطل
فرمایید
بیوش
ترسی
بارور
بلگراد
ناامن
نمیایند
زنگی
عصرا
##اواتی
بیتا
ارمسترانگ
باندهای
هیدروکسی
ویلن
هنرمندانه
امیلی
پردازندهها
hdr
لامبورگینی
پرینستون
قورباغه
محدب
کراتین
هاینریش
دوگانگی
اپتیکال
rf
نابه
یس
یالث
۸۲۰
##مربع
##اسل
خانوادهام
راستین
پدیدهها
مایوس
۲۳۵
بستهای
امیگا
سارق
۱۸۸۸
برهمکنش
هنرپیش
یابیم
بریتانیای
شايبه
type
بوندسلیگا
مرف
##هد
##ودان
##هاج
همە
الل
فرامین
احیانا
##قیقت
##سالگی
سینگ
پرسیدن
سیاهپوستان
نگرانیهایی
وعدهها
لطفعلی
نایبال
۱۸۹۸
اسکنر
یارانههای
sci
نمیبیند
نمیدادند
مکزیکو
بالارفتن
ضریح
فیا
قای
یوزف
##net
درین
##الر
##یدس
امویان
نمو
بیجار
دیوانی
سرگش
گرفتاری
تجمل
سوختوساز
پاپی
پايولو
خوداگاهی
بطلمی
museum
غش
##يیل
##ولون
ارمن
پاییند
افزونه
فعالین
##امدن
۱۲۲
حوزهای
ستاری
مغولی
کاریزماتیک
جدیتری
اجرهای
تيود
اولیای
متروک
دفاعیات
سکونتگاه
برگرداندن
مسافتی
وزنهبرداری
پدربزرگش
سلوک
غازی
فدای
##دس
##زاسیون
میپیچ
همتا
بیکر
جهل
اقتضا
تبحر
ریگی
هدایای
فرهنگسرای
ایتمهای
مایا
دنیوی
##اویروس
وفناوری
##الاول
ویدیوهای
نمیخواهید
دیویدی
میچرخ
همفکری
sony
wwe
بسم
##خیری
##ble
##ابههای
نیکلای
##ومیر
بدیل
اتشی
نهچندان
نرها
ملخ
##eral
کرملین
شعرای
##ated
سابقش
کاتالیست
ایزو
بارزترین
لنزهای
سباستین
##وگرافیک
خارقالعاده
دمنوش
np
خروش
##دانی
##عین
##۱۳
بازت
تصوری
جانش
مالکی
اصولگرای
جنایتکار
یارانهای
الکترومغناطیس
مرهون
عصراعتبار
ld
خدی
لاهه
##de
##لاو
##شکند
مجار
بدبین
##واژه
##اطت
داشتهام
بودهام
فقید
درامدهاست
هفتگانه
برداشتند
اکسیداسیون
۳۱۰
ناپی
زردی
سازندهی
پریشان
تصمیمگیریهای
amer
هانری
میپرسم
بلندیهای
کهکشانها
بسپارید
برچیده
دکمههای
تکلیفی
جوک
ملوک
یوشی
##ثیه
##ارداری
دنریس
واگ
سلایق
سینک
بردیم
دیدهام
صحبتهایی
میبایستی
گوجهفرنگی
رقیبی
هرويین
اسکریپت
هموگلوبین
یالثارات
tom
لون
یوت
اوات
روزن
مستغلات
شرلوک
سفرههای
جوشان
نویسندگانی
ردپای
ادرسهای
کنفرانسهای
فشردن
جویای
رفسنجان
تشنگی
ارجح
لقاح
ریموند
تنگاتنگ
##ht
##ردید
امبر
##هرود
قرارگرفت
بزاق
مبد
شوشتری
متحدین
stre
اخلاقیات
النصره
فولکلور
##حک
##ji
داشب
##ونیان
کیلوب
سامانهای
اردوهای
طبقهی
ازمایشهایی
موفقیتها
موسسهای
بادم
برهمین
دستمزدها
اسیران
مرتفعترین
اسماعیلیان
سفالگری
هفدهمین
روزبهروز
احمقانه
کمپرسور
ایلینوی
منسوجات
تالی
ترفیع
ژوست
##مانهای
ارون
اعلی
##قلمون
اندیم
بلایای
سافت
##تانا
عرشه
شیرجه
##پرورش
مرزبان
ارزیابیهای
پلیمرهای
تناوبی
باینری
nov
یر
##پینگ
##طاط
دریم
##ادان
همر
##ترهای
پیشوای
انجاست
دلال
مکعبی
ستونی
##کوین
بهترینهای
نمیزند
##ادهایم
گرمترین
انجمنها
بریزد
بفهمند
مینیاتور
ناپایداری
مکلارن
اسوشیتد
fil
mos
طنین
طاووس
##برو
میابد
##اهت
ایفل
راهش
##اپذیر
افرود
دنبالش
ازمیر
گیاهشناسی
اندیشیدن
عزتالله
بهسادگی
مفرح
سپاسگزار
center
پسوریازیس
صباح
##الری
انوقت
##هاور
میکس
عمه
بارگاه
گرداند
خیزش
میلانی
فیث
واحدهایی
کنندهها
دستهجمعی
##itch
پروازها
ساسان
اشغالگر
حساسیتهای
شادابی
۱۸۸۹
سخنرانان
سانتریفیوژ
key
soc
تیتان
فوریت
لادن
همکف
ایان
جمشیدی
ارتروز
اعتلای
اظهاراتی
قابلیتی
##زنر
والن
همسایهها
پمپهای
کوهنوردان
مددجویان
هاوارد
پاراگويه
انفلوانزای
گورکانی
پرافتخار
##زیتی
##فیس
##۶۶
##ger
استند
اجازهی
سیان
شکایتی
نسبتی
##زهرا
##بالدین
۱۲۵۰
اوربیت
مشاهدهی
اهنگری
بازدیدکننده
زمامداری
بابکان
راهیابی
میگذارید
مکملها
بیخطر
متیل
مودیان
التیام
ابوطالب
ژاندارمری
fir
ist
ضیا
نجم
کردار
نوشهر
رسوبی
صورتتان
تروی
دانشور
بلوز
نشویم
اکونا
پنجاب
شوال
رودر
علیهالسلام
اماراتی
خطراتی
گرافهای
فتوا
زوجها
فرقههای
بازخوردهای
بپوشید
پورنوگرافی
rad
sett
تریک
حیر
خرب
##قف
میار
##روشی
دیگهای
پیشخوان
ورزی
همراهانش
کیلی
تورین
سوددهی
پیشرفتی
مانوی
پیچید
زدهاست
۸۰۲
امیدوارند
استادیار
دوزخ
جشنی
عبرت
فوج
هاله
ییل
##وجی
##سیزی
منهای
اسبی
افخمی
هربرت
برگههای
داخله
مینور
سردردهای
نکوه
##وذر
سدها
اولویتها
بیابانهای
۴۶۰
شالوده
نمیشناسد
نفاق
##هار
##دنده
##اموس
خودک
##جهت
خطهای
ترکستان
سبزه
پارکر
سیستمهایی
تکهای
خاصه
اسیبدیده
مقرراتی
خلط
لهجههای
شگفتانگیزی
عزیزم
مریلند
پسرانش
پیروانش
نشینان
الفاظ
رکابزن
##علاقه
هوافضا
ult
اندیمشک
کدر
گيور
##پف
##hr
درامی
برک
بردم
موحد
کارگاهها
##اندرو
##ناو
اصف
دهقانی
رویهای
وساطت
بحثهایی
طلبه
تابستانها
نژادپرستی
##ode
مظاه
چراغها
##سلاو
معترضین
ناهنجاریهای
اوگاندا
همکلاسی
خنجر
##سکه
اینطوری
روبرت
منقب
دیاز
زیانهای
سفرش
اوردیم
اندیشهها
باختند
وبسایتهای
التزام
طاهره
اسفندیاری
rt
##سارت
بهمرور
اینف
بیضوی
ویسک
##شنال
گردونه
کتابخانهای
پردههای
خطایی
سامورایی
مارین
رادیوی
۴۵۰۰
شباهتی
۱۸۹۳
تدارکاتی
بیاموزد
بیفز
لتونی
چرچیل
fre
جبار
نوردی
گاس
##رزی
##mp
##ارث
درجا
کارتی
معاد
بازیکنندهها
۲۰۴
ارتمیس
زمانهایی
ابتکاری
ریاحی
اذین
سراش
مفرد
مقایس
افزارها
نمیروند
برملا
سوسن
طعنه
مشایخ
فايق
ژیمنا
ast
جریم
سستی
شفت
قدیس
هش
##ندههایی
خودرا
توح
داو
ارایی
سرگرد
هرانچه
مرند
علیبابا
عربستانی
اساسیترین
##بازان
مسافرانی
کشتهشدگان
##ساخته
##پوشد
۱۸۹۲
کامیابی
دزدید
رباتها
واسطهی
تیلرسون
ليونارد
اسکورسیزی
نباتات
عبدالحمید
ژو
##گامی
باسن
یکسوم
##یاوقات
پسورد
نامناس
میانههای
تخطی
##زندگی
عبدالملک
هایم
موناکو
توقعات
توییت
واسطهها
##یدرمانی
میکروبها
##مخاط
پکیج
منقبض
pp
ننم
##مرت
کارورزی
کمد
##مهها
شیط
##رزرو
بحرانها
هرچیز
سانتیم
انجاییکه
رقصهای
ایزاک
##ange
eng
حوضچه
بالادست
دابلیو
مشاجره
کهکشانی
اعتدالی
اسپیلبرگ
جثه
سزا
##اتها
کارنا
ادین
موضوعهای
انگشتر
##کوفسکی
##ani
مادرشان
ضراب
دولتیها
##العملی
##amp
##ider
تونلهای
شادمانی
استعدادها
دشواریهای
دکلهای
اسمارتفون
music
کمنظیر
داشبورد
may
غشا
میمان
سالهایی
##اسین
داف
متکل
##واژ
ریحان
مغناطیس
کانر
ولى
نتوانید
دخل
هارولد
شبانهروز
فوجی
enter
راداری
##فارسی
شکوفه
زیورالات
احمدرضا
لاو
گلا
##مرکزی
سالخورده
بیسم
متین
نوقا
اشیل
اشارهگر
تاییدی
کلمهی
تانکر
##ution
قصهی
گزاف
کاراکترها
الرژیک
متضمن
تبلتهای
چوپان
gh
جفر
##ze
##سیونی
اسا
مقبول
ادری
اجارهای
دهکهای
هزارو
سویه
ارزشگذاری
##اشیه
تاجران
شنیدهایم
نمیشدند
میفهمند
سردرگم
لايوس
ناعادلانه
اکی
تامی
ساطع
صراف
لاور
##fi
##ابید
##لاص
متج
##وریها
هیاهو
##گریز
تخریبی
پسرانه
چهرهی
گناهی
##idge
چکیده
خوردهاند
مجلد
چشمانش
مشوقهای
فرمایشات
il
طوطی
هايی
##نویی
برگر
برکات
##ونتو
مننژ
توکو
افبیای
سرپل
متزلزل
##میزان
##برز
##باور
مجوزی
##جیو
طیفس
تعدادشان
نیمهن
خوشامد
اولیهای
چاهها
منازعات
فلسطینیان
خجالتی
web
میمونها
mode
حتمی
هیاهوی
##اول
##فوذ
اسنو
سبیل
تاثیرپذیری
تازهوارد
ماسهای
inc
بتدریج
نخواهم
لولهکشی
دویچه
پمپاژ
خستهکننده
ماهوارهها
دانشجویانی
سیزدهمین
کروناویروس
شعلهور
سهیلی
میکرومتر
البالو
num
rd
veg
عقیم
##چون
موشهای
افکند
##قیلی
##تانگیز
اشتوت
شوقی
##ench
کورههای
dec
صحنههایی
مبارزهای
نروید
##نمایش
ایستادهاند
رباتیک
ناهموار
دهلیز
فانتوم
انستیتوی
ثواب
خاش
رینز
شنگ
لوزان
##رتی
##ایص
##الشع
میتوانستم
افزایی
بنک
فروتن
اکدی
کنارههای
کرنل
صددرصد
خوشش
بیمهنامه
##وفیل
بلندای
تحلیلها
نیروگاهی
بیافتد
برداشتی
تومورهای
شگفتزده
##iver
reg
برگردند
پیداک
کمربندی
تناسبی
میزیستند
هدیهای
درعینحال
یاختههای
گینس
یخچالهای
techn
مواظب
ct
je
قوطی
هین
گریزی
##کاظم
##نامی
##ساران
##ایایی
کارمان
دادخواست
روزولت
##واسی
وجودش
شهوت
فروسرخ
پنجگانه
تشویش
جریانها
موقوف
##orn
ترکیباتی
رساندهاست
##قایق
راهیان
۵۳۰
پاتایا
اورتون
بیحسی
هیمالیا
اپارتمانی
میکروارگانیسم
cast
ثانیهای
خف
رنه
لي
بهادر
معبر
ایول
اشمیت
##ربچه
ارتریت
جنگجو
ريی
##قرانی
مشاورهای
باستانشناس
تندروی
۱۸۷۱
انتقامجویان
اسایشگاه
بیخبر
فرخزاد
لودویگ
تویس
##فولی
##۷۵
دراختیار
بهداری
کنشهای
##هرفته
فرجی
متریک
##جهانی
پیشکش
##رایز
همراهش
نسبتهای
شروان
تدبیری
ایمانی
بوقلمون
اپلود
ضربتی
هیدرولیک
استحصال
بزرگراههای
مهدکود
app
خرسند
class
گهگاه
متفرقه
واداشت
ra
بامیان
رفق
کادی
بیزین
کشک
##ماء
##ارهها
کلون
انگولا
مهرگان
خوشبینانه
مفع
نبوت
شاخصههای
تیان
کشتهشدن
اهنربا
۱۳۰۱
نیکوتین
قومیت
##گوسن
جودو
عتیقه
زاکانی
نتیجهاش
نزنید
ww
فمین
وها
ویش
وردی
کاي
##شخص
##خا
##خواهد
##طاری
بهشهر
افسون
ابگرم
سازید
اندود
جنگیدن
سنن
##کوزی
تفکری
جمعیتهای
بنیصدر
تابشی
نصاب
##ision
##ضلعی
تعرفهای
گماشته
مفسران
mv
فیم
هالهای
##طا
##بیشتر
میکرون
نشانگان
##وقفه
دریاچهی
صحابه
##ویروس
قلعهی
##گزینوس
شرحی
##uth
راسخ
کارامدتر
نمایشنامهنویس
ناهماهنگی
اگزیم
الایندههای
هیيتی
cng
مسالمتامیز
سافاری
رهنمودهای
شتافت
رنگرزی
خصی
هگل
##اتش
بودهاید
کمدین
##صدای
دلیر
مخمر
نفتخیز
کرخه
سنگفر
هندواروپایی
قراردارد
مثالهایی
روابطی
ماندلا
نتوانیم
معلولیت
گفتگوها
۱۲۹۰
طوفانی
شبان
شانهها
غله
هابل
##کنده
##گول
##چرز
میپسند
باگ
باخته
براتی
ریف
سنگاه
نقشهی
هدایتی
اموزشها
سرافراز
##ینگهام
دوستتان
الیوت
پوستان
حقیقتی
عقبتر
سوربن
def
بهموقع
شاگردی
لیبرالیسم
میدیدم
متحدانش
یکسره
کریستیانو
far
wr
نذر
پریش
##اچی
شدگی
الذین
اشارات
پرمخاط
##لوف
نورونهای
پنلهای
سرزمینها
حواری
سوروس
سرمق
امتحانی
کاستاریکا
اهرام
دراورند
august
بادمجان
nv
vi
شغال
گارا
##شاسپ
باوری
راشد
همرا
هرچیزی
##اکر
بناهایی
گازدار
فعالیتهایش
قلعهنویی
مرغداری
بهارامی
مگس
جانشینان
اشعارش
فیروزاباد
باطنی
لاهوتی
لاجوردی
اوکراینی
قوسی
چیا
##ous
##ui
همگرا
سرلو
##مانیا
##کتها
کاریهای
۳۰۱
پیامکهای
گذاریها
اسفنج
۱۸۹۴
اویشن
ایديال
تذکره
پراوازه
cs
وفا
##طریق
##دههای
بیبر
دلالی
مرکوری
دیدهاست
گفتهام
۱۵۲
سودمندی
خردل
##itter
صداگذاری
تالارهای
منعطف
هیدرولیکی
کامیونها
کرمها
رگها
درحالحاضر
خوشنویسان
متقابلا
کرفس
اگزینوس
##کاف
##بوم
##قهی
مقید
مشبک
اته
پررنگی
خطیب
رفتهرفته
کالین
مترجمان
##ینگز
وقتش
مناسک
رضوان
مهاجرانی
صلحامیز
سرمایش
خمسه
##الینز
چشماندازهای
حیدریه
ویراستار
هايیتی
bat
بیتهای
رعیت
تاشکند
نیوتون
##ومین
مداحی
ویزیت
دانشک
بینانه
##راتب
خطبههای
روستايیان
صدقه
بدنهی
کاوی
خوناش
انواعی
ولید
پسرعم
الیور
چرن
متعالی
متعصب
سمب
تنگنای
ایمیلها
عطاران
تامسون
تهاتر
امدادرسانی
ناراحتیهای
تنگاتنگی
نامناسبی
ur
ذکا
سکت
متیو
##قابل
##قولی
##ینکی
املاح
کنن
بیض
تحریمی
بدرفت
پربین
میانوع
تاریخنگاری
کلیشهای
وضعی
پشتو
خانهدار
فرمانداران
متوسطی
ناحی
کرمانشاهی
فرامرزی
جناحهای
موتسارت
مکانیسمهای
پلانک
شامپان
نشنال
لگد
نااگاه
لگاریتم
s۸
ضربی
قیس
##عههای
##hi
انک
التم
دهانش
سپیدر
##زهها
میخوریم
گلولههای
شاهراه
بعض
جامعهشناس
اوردم
هندور
اسپرس
اجراء
کیلومترمربع
##الممالک
فراماسون
ایالتها
کوکايین
ext
سوادکوه
اسماعیلیه
نامتقارن
یگانگی
مایکروویو
نیمهنهایی
تارهای
جودی
نولان
##هاند
انتوان
##ازاکی
مواصل
تاچ
ارضا
بیوقفه
##نگها
متافی
انتون
بایدها
دادههایی
کاهنده
ريالیسم
صفایی
سخاوت
##ولوگ
نگرشی
استانداردی
پتنت
چرخههای
##aya
ماموریتها
اولیا
ماخذ
شفیع
تجمعی
تکتک
فولیکول
cop
lcd
sar
لابه
نال
کفت
گیس
##بح
ارل
سرپیچی
هرروز
انتفاعی
۲۰۵
انگاری
سامانهها
روانکاوی
زیستن
مورفی
فولادهای
توصیههایی
برندهی
صهیونیسم
۱۸۸۶
http
معالج
باربارا
دیره
لوبی
##نق
##طبق
منم
##یشدن
##شیب
##افیل
عمره
احص
دیدگی
خیبر
جزوه
شیبانی
مارسل
خوشههای
پایهریزی
##ماندنی
پاکت
##لیمو
گیران
گشتهاست
بمیر
ابادیهای
adv
org
لنگه
غزنویان
تفاهمنام
##موزه
##۹۶
##ومو
اوزون
معرق
کلونی
سبحان
مبنایی
جوانانی
انفورم
جهادکشاورزی
واژگون
تالابها
عبیدالله
پریز
##رخ
##ric
بریم
العم
ویز
میشدیم
مقرنس
تحولاتی
مقدسات
۱۸۴۸
کرکوک
مفتخر
پنداشته
ابرقهرمانی
اسیبدیدگی
اگری
نایف
هگ
یالهای
##حوی
اینو
استال
##اسدی
مرغی
##ویتری
نورونها
ارامتر
ملتهب
سایتی
انعام
هیدروژنی
گشودن
##وکسید
##ويیدها
توطيههای
nat
قشنگ
##قمی
##طراحی
سالهاش
بیاییم
##اندرا
افشان
دانوب
بازههای
شنوندگان
##مدن
##هنویسی
زبانزد
کلیش
نمودارهای
شعبههای
شعاعی
اسپیس
سوالها
مسافرین
##oss
درحقیقت
۵۴۰
کریمخان
زهکشی
احتیاطی
tele
عبدالرحمان
میبخشند
العدل
بج
نون
پاب
یوک
بهند
امکانی
ارابه
مرام
##واح
۲۰۸
##نجار
دلشان
انتخابها
کردنشین
ملکش
هزینههایی
۲۵۵
##خانو
بیتردید
انحطاط
مگاواتی
نازنین
حتى
هیس
١٠٠
چلی
##کمی
##انلو
بهص
##انیل
الون
سربار
گردانند
سايو
انگلی
رایانش
پیشنهادهایی
نانسی
ناخدا
گاهیاوقات
ضربالم
میشناسم
کاسترو
ترانزیتی
پارامترها
وصیتنامه
##uck
ارتدوکس
اپیدمی
اورکلاک
غمانگیز
ss
زشتی
لنی
نتهای
میتاب
باواری
##ازها
##فرید
بازتر
تمکین
ملیتی
شخصیسازی
ویژهی
گوشیهایی
مسلمانی
شاهدیم
کارتونی
بیستمین
##ura
تاراج
سفیران
جاسک
۱۸۶۷
طاهریان
تصدیگری
کپکام
طعمی
هافمن
gear
قرعهکشی
معناداری
قافیه
برلیانس
اشتوتگارت
fm
##يال
##li
##وانده
نیکارا
بازافرینی
تمث
شکافی
پرینت
غیرخطی
##وکرات
##کوهی
میدانها
موساد
نمیزن
شیرها
تیرگی
کفپوش
سنتها
مخالفتها
کیلوگرمی
شگفتیهای
##فایده
زرشک
استدلالهای
مقیاسهای
بوتان
کارفرمایی
بهدنیا
##حیدری
نشنیده
نمیگوید
وثوق
قاتلان
محبوبی
لیتیوم
b۶
##ler
برنی
توخالی
کارانه
گرمایشی
##الیها
اجابت
سهتار
زیرنظر
ورلد
فروم
میخواب
مشتقه
##ates
ورزشها
پیشرفتها
خروشان
زیباییشناسی
کاتب
موبدان
سنجر
پاشیده
سیستمعاملهای
مکاتبه
نفیسی
خوارزمشاه
وراثت
بهندرت
gdp
رالینز
شول
ظرفی
لله
کبی
##ci
##طفی
الفون
دیست
رسالهای
مشق
##وسان
نیستی
مراکزی
اعتنا
اعتنایی
حضورشان
محدودههای
##ano
هشتگ
قطرهای
هایپر
تخمها
باندی
گیگابیت
استثمار
شنیدهها
۱۸۸۵
رسانایی
چهاردهمین
استهلاک
نافرمانی
فرهیختگان
متشکرم
استدلالی
بکت
فومن
##زیم
##یداس
##تیا
توف
ایهی
روزنه
احد
همهگیر
خطیر
##التفاوت
لوکی
##ats
پنوم
معماریهای
سبزواری
پردازان
نژادپرست
زمستانها
بویایی
ایتالیاییها
بکشیم
کاکتوس
حاضرین
میایستد
خدابنده
بیوتکنولوژی
street
pass
rom
دکان
##صن
##ابطه
##ویژن
توا
الناس
اسلات
##اندرت
##گوشت
بلبل
حقایقی
شیو
مهرجویی
اختصاری
پزشکیان
قطعههای
جشنوارهها
سوختگیری
قطعهسازی
ممنون
دهندهی
حمامهای
۴۳۰
محفظ
ایندگان
زانوی
تخلص
ta
##oo
##fe
##صح
##ریتی
##ترها
روبی
مايو
نامهایی
تنور
نرون
گفتهها
صدرا
مغفول
محدودهای
شیروانی
پدرشان
مارها
۲۲۰۰
امتیازهای
نعمان
عرفات
۱۸۶۸
مروج
خاویار
تلاطم
سپیدرود
don
ry
##اهند
نمیب
بیفایده
پیشینیان
##وقتی
فلوت
##گشتی
بودجهی
رادیولوژی
ساحت
اشکارسازی
مجازاتهای
۴۱۰
ارژانت
یکنواختی
کلرادو
ترفندهای
میپیوندند
intel
میداشتند
ممیز
غرفههای
بازدارندگی
شوالیههای
وکیلی
فیثاغ
bre
hal
غور
ليوپ
##نوردی
##سینی
##خام
##za
میردام
براي
معاهد
اسرع
بیگم
دوتا
##بانوی
فعالتر
میدن
مخربی
جزای
اروم
پاسگاه
##کلند
وضعیتهای
محصولاتش
##وپن
روبهروی
نوزادی
اولویتبندی
طلبکار
##ization
نهاوندیان
لشگر
sil
سیده
##ds
هممرز
سروان
هرسال
##وشوی
کلوین
زیرشاخ
##گوین
تواند
گلزار
پارینه
انسانهایی
لحنی
بستهاند
تکنسین
الیگود
موقعیتهایی
صدرنشین
##ودرمانی
##ript
جورجیا
صریحا
مبالغی
شجاعانه
بیاعتمادی
دیترویت
سراشپز
حری
رقه
قق
قویتری
مالب
وودی
چیدن
##وبا
##مب
##fer
میای
استاین
نمیس
سرسام
مرقد
ماح
مردمش
ازدواجهای
شمارهگذاری
۲۱۵
پیکاسو
پیمانهای
مضاف
عفونتها
نگرفتهاند
edge
گارسیا
انرژ
اسکلتی
اعیاد
نمیگذارند
پربیننده
عقیلی
##انع
##اردار
کنیز
کارتاژ
##بیگی
کمالی
ابدار
هیچوجه
عرش
##دانش
۲۷۰۰
کربلای
##روتيین
العربی
مسيولیتها
والف
پورحیدری
مستندسازی
ترانهسرا
۱۸۷۸
##ifi
نهادههای
ابتکارات
کوچهها
پشمی
ریاضیدانان
کورتیزول
لوزالم
مابهالتفاوت
کارناوال
ريیستان
پیدر
چخ
##پتون
ابگیری
بازهای
سیاتل
بارسا
کوپا
ریشتر
پرسه
دیدهبان
افغانستانی
حریری
جیپ
روسو
اختلالهای
ترجیحا
##rix
قارچهای
رگبار
خردهفروشی
وخیمتر
ارنولد
انصارح
پلاتینی
بدبختی
دبلیودبلیويی
قایقرانی
انفورماتیک
sun
uv
ثلا
رسی
هانت
##بدان
##حتاج
##صادی
میگن
برگی
بیخی
اولد
##اپیش
کردنش
همراهتان
ملیگرایی
عباد
شیخی
اقامتگاههای
انیمیشنهای
ریختند
میترسید
زیربنا
نهنگهای
میرزاخانی
عابران
رحلت
فمینیسم
gpu
gold
اویز
غازان
نورت
##عنوان
##ka
میا
انبه
معرب
بارانهای
خطور
کامیکس
خاطراتی
انتظاراتی
جداره
بیتفاوت
الگوب
حقوقیها
ببرم
طالبی
وحشتناکی
تیپهای
تقیزاده
میپوشند
شانزدهمین
معارفه
مصنوعات
خدیجه
مواصلاتی
hel
رجوی
سنه
طاغ
٩٥
کمچ
بخوبی
##اطعی
ماهگی
اندرز
دلق
کتابداری
سلح
حمایتها
عواید
مهرهها
بزرگترش
باتریها
غربت
شوکهای
زبالهها
بپیوندند
##ike
ماکارونی
down
الاق
تضی
یت
##تیکو
محرز
بیکاران
##برج
پرندهای
بارشهای
زندگیام
##اینکه
مارون
حکومتها
دستیاران
مراقبه
شناورهای
کوششهای
۴۴۰
دخالتهای
۵۷۰
۴۷۰
۱۲۸۵
ویرایشگر
امامیه
ایندیانا
nm
tu
حیله
خندان
سفتی
نانهای
##گیت
##بادی
##ةال
درطول
##ودند
باسواد
محتاج
معز
فرنگ
داشتهباشد
تعمید
##نهام
ناجی
تحتالش
تازهکار
##اویج
امپراتریس
دونفره
کرومات
کازان
ممتنع
کتیبهها
خفاش
بمیرد
طراز
چکار
گالات
##پرت
##غبار
##روال
کردان
##اسنج
داروساز
هرس
راهب
توانستم
رهگذر
۲۲۴
عطش
دبستانی
هوادارانش
خطاها
مناظرات
ناهمواری
کربوهیدراتها
هنجارهای
نياندرت
serv
مستضعفین
صنایعی
پروپیلن
فمینیستی
خودسرانه
رفراندوم
سنگاهن
الیگودرز
تحتالشعاع
bra
fa
جب
خنج
رجا
واهی
گانگ
##جوانا
##۸۹
##ظیمی
##ارژ
##ردر
امدی
تايو
دیزی
پیشاپیش
بدنام
مدیرانی
نخورید
کوارت
شوخط
صفوف
##العابدین
طلحه
سریالها
بابونه
بینیهای
کتمان
تولدش
عروسکهای
انزیمها
یوزپل
خصلت
نامتناهی
az
بفت
حلو
١٧
انفعال
##ازاری
خودبه
##یشود
ارض
ابوری
بینظمی
بالابر
انجامیده
هیپو
##قلب
نمیشوید
عقبه
جادهی
##لحاظ
ترجیحی
طرفدارانش
لوکا
فاینال
هومن
تفرش
بچگی
لانچر
ابرقهرمان
بگذرانند
fun
##ws
بردی
اینس
##یداد
محرمان
سرخی
رویاها
پرهی
راهبان
شنهای
شهامت
##کسازی
کوج
اشتعال
فراور
هنرنمایی
سیدال
ایستگاهها
کدخدایی
پیامبری
البلاغه
##uss
پیمانکاری
ارسباران
میخوردند
الحق
شاداب
رباتهای
مجروحان
هردوی
پانزدهمین
بپرهیز
بلشویکها
ارژانتینی
cf
جده
عکا
موریت
یوا
##شیت
##ql
خودار
نیوک
توفی
توامان
بیزار
گرید
کمودور
##کارتی
گوارا
کسالت
سودای
لوید
۲۷۵
##ott
رویدادهایی
باریکه
گنجشک
##کارتان
اویغ
اموختگان
فلسطینیها
رزماری
اسپانسر
بطلمیوس
شیطنت
god
شیدا
شيون
صمدی
##شتم
پیشگاه
رویس
بیشترشان
رییسی
کمکاری
رایزن
نگفته
اضلاع
منظمی
نورهای
زیادتر
جدیترین
زیستگاههای
فیزیولوژیکی
گیرندگان
ستارهشناسی
سیرک
مذاکرهکننده
اتهاماتی
ماریجوانا
##چینو
زندگیمان
ترکمنها
عاجز
نمايید
لوزالمعده
hell
ضع
وهابی
##نورد
##ساح
##جیم
##ستار
##گیزی
اندیس
##رینگ
ناظم
گزارشگران
میرسیدند
تاکیدات
داستاننویسی
استادش
محلهی
زاغ
رهاسازی
براوردها
واژگانی
##طلبانه
بهدستاورد
سرودههای
فیروزابادی
۱۸۸۱
شیرینیهای
غزلی
شدهبودند
شگرف
ملکشاهی
##باید
##پاک
##ظار
##ستو
منبت
السلطان
دیوای
##میوم
##وسر
##بالا
##اسیس
حملهور
ساختمانهایی
ابرهای
جلسهی
تکنولوژیک
مایحتاج
android
دلسرد
اوارگان
قزلباش
بازپخش
هلسینکی
سانتیمتری
پیدرپی
over
will
استامین
##نیای
ایف
ماها
کلکته
زیره
بلان
##ومتریک
اردکان
هندوها
حسابرس
##وسیت
اصلانی
زدیم
موسسهی
عباساباد
عمیقترین
##ards
اشیانه
##منطقه
هلاکت
توحیدی
ققنوس
نیند
##اخی
##پون
برنجی
موع
موتی
فرگوسن
مقوی
بازوهای
شعور
هفتصد
اسپم
تعیینشده
شناساندن
حجاری
چرخها
خواندهاست
شایعتر
بیهقی
رجبی
بفرد
پلیاستیشن۴
موهایتان
ببندند
اکوستیک
ابوریحان
king
run
##la
ازرده
معارض
تنیده
##جیف
##فهیم
اورنگ
بهترتیب
دریچههای
عالیات
موثرند
سکولاری
فولات
فشنگ
علامتی
تروا
edition
انتیاکسیدانی
بشنوید
رابینسون
manag
زیمنس
##attle
فرهیخته
دایناسورها
قناعت
cc
kar
اشته
حنا
واتی
گت
گلیک
یوح
##کای
##ووا
##يیم
##gb
منوال
مقار
##۰۰۰۰
##هیب
##اکل
اخلاص
شیپور
ملاز
سلماس
تلم
بحبو
بنیه
##ative
بیتکوین
بیاثر
جلبک
عبدالق
بغض
زینالعابدین
arch
سرودهای
فایرف
مسافتهای
میکشیدند
elect
بالابردن
بدخشان
شاندیز
ces
pap
post
جریکو
قاد
قونیه
##وویچ
باارز
برسم
##لاپ
معشو
فرشید
ادگار
بدیم
##وسنتز
علتهای
۱۸۳۰
مدلهایی
گرمسار
۲۲۶
سانگ
اذرخش
میانهرو
چالشبرانگیز
##uty
چوبهای
خروجیهای
یزدان
رامبل
گاها
##awei
مظلومی
ps۴
جولیا
جاویدان
لیونل
دوبلین
کپنهاگ
بحبوحه
معشوقه
حراجی
خاد
فلیکس
##لایی
بریک
همسال
ارتی
سفار
فلانی
چاپگر
نداشتهایم
مبتدی
##العظیم
پوستهای
مشغولند
شبیهساز
فرصتهایی
توصیهها
شارون
ریاضت
مناقشات
سوراخهای
میپرسید
جراحان
هادریان
حمدالله
صلوات
امبروز
الگوبرداری
home
شبا
نگیرند
یقه
بهاندازه
##ولر
گفتمانی
زیرنویس
تکوین
قدوسی
سیاسیون
##نتال
نفهم
کورس
باریکی
سمیعی
اشیایی
سعداباد
دلفینها
ندانست
منوچه
نيوکلا
انتیبیوتیکها
تخلفی
ازاینرو
ارغوانی
همتراز
سرگشاده
الاغ
بعهده
بچهای
تغ
زرده
نویی
ازطریق
برجی
##باقی
##بايی
ایبری
شمردن
هدفتان
دریافتکننده
بدنهای
اظهارنامه
عدالتی
##نوازی
مقابلتان
بورگ
ذخیر
قطعنامههای
اعتراضها
برندسازی
ورودیها
فرانسویان
سويز
شاخهها
روایتگر
مشتریها
read
سرورها
رزمایش
عصارهی
فاشیسم
برايت
cp
rock
set
اودا
جیتی
رله
ضی
مکی
##يان
برندی
دوهزار
هیو
کلنل
بارو
دومش
ابیات
لیگهای
لاتینی
هکتاری
شستوشو
صیادی
۷۴۷
سنسورها
##play
پلیمرها
مارکسیست
گهواره
باطری
##اتونین
رجیستر
پرنسس
عیلامی
کاتالونیا
ژست
کیتی
انباری
دورترین
پرهای
چندبار
راهحلی
مکش
هنرها
اینترن
دردست
نظریهها
ins
##ote
گفتوگوهای
استعاره
درخشید
adsl
گچساران
عبدالعلی
شیمیدرمانی
زیمباب
لجستیک
اورارتو
الاهلی
big
last
فایر
##پام
##خراش
##ودرد
##یدانهای
هستهی
##وتور
دانشهای
خانههایی
منتج
تیمهایی
میخرد
ارتباطاتی
سریهای
ناپسند
گوربا
برگشتم
نوازش
##ظاهر
محلولهای
هدفمندسازی
مرجعی
فلاش
اریکسون
فخرالدین
##پاسخ
بیزانسی
ضدانقلاب
فرونش
تراریخته
ژیمناستیک
ba
cur
لزنر
گهر
یات
##کیل
##سانس
##پینا
##zen
##ستول
استیم
##ومیک
قرینه
مسری
ابوتر
بزرگانی
##مدیر
شبنم
##انسن
سايور
گوام
خبرساز
معمایی
حوزههایی
مینواز
پولش
ورزید
بوروکراسی
مورف
ابنبات
غذاییتان
تاکسیها
بنویسم
۶۶۰
درامدهاند
درعوض
ارگانها
شیدایی
انفولانزا
ماحصل
استامینوفن
nfc
pat
مادل
٩٠
گاری
##زیس
نظایر
نوای
##دیدهای
شکستی
چهارگوش
گلبرگ
نمیتوانستم
حکومتش
لایو
چارچوبی
فسا
##ille
انگیزهی
دایرکت
سوارکاری
مراتبی
بریج
فریدمن
هولمز
نابرابر
گریبانگیر
ناارامیهای
مداحان
سرمقاله
بگونهای
رضی
چام
##بعد
##فست
##صور
خودجوش
متورم
مربا
سیارک
##وعا
تجدد
فعالترین
دلتا
همهگیری
کوارک
کوخرد
ایجادشده
دریافتهاند
##اخانه
بیماریزا
محدودهی
پاسخها
اناناس
گرمسیر
اشکاری
بسنج
موسساتی
دایم
هیدروژ
##ogr
عباراتی
ریچل
کپلر
خرافات
##جاذبههای
سزاوار
سايورون
cad
صعب
طوس
عدن
عریان
نپذیر
میبل
استنش
شدی
معظمی
ارق
مسنجر
##برقی
هیزم
##نهار
جنگجوی
لیام
شرارت
##قراری
سیمانی
##والکتریک
گیاهخواری
مسجدال
افسار
##hem
مادامی
##urg
لینکهای
تماشاچی
کریستالهای
نمیدانستم
ipc
نظرسنجیها
لاستیکی
اگزما
اثربخش
##gram
##soft
محرومان
ضدالتهابی
hon
بانه
تغیر
ساید
سوهان
نپرداخت
وشم
##۶۷
##حتر
میبد
اینور
راکی
انتیب
امنه
فراد
یاخته
تنبی
حالش
بلر
اسلاماباد
ساوت
ملاتونین
##erg
##هاشمی
همچنانکه
بیتوجه
پیادهرو
برگزیت
فرمولهای
شستوشوی
حفاریهای
بریتانیاییها
نگرفتهاست
چگال
ساندرو
کمانچه
جراحات
غیرمتعارف
cle
pos
اریت
لورن
پچ
##خلاقی
میهنی
یکت
##زیکی
##رکی
نامحس
نامنویسی
بخور
ابشاری
ابوذر
##دران
دانشاموزی
قبور
دریاهای
اکری
مغرور
کانتی
##والد
یونها
##esh
عناوینی
عبداللهی
##کلیفی
سیگنالها
عاطفه
مینیاتوری
grand
پاستا
استریپ
control
خاقان
کرباسچی
والفجر
ni
pt
tem
رضای
بههیچ
میگم
برگیرنده
سرگیری
##الیان
کمانی
ادو
ابخیزد
گروهش
کانزاس
مادرها
دههها
تکنولوژیکی
دامها
##ico
رییسجمهوری
سرمایهگذاریها
دستاوردی
مسافرتهای
##وهاب
ملاصد
نگارههای
۱۸۴۰
نگذشت
نمیبینند
گوته
اتلانتا
##صادق
التماس
زیمبابوه
bm
تکس
##جامی
##ماندن
معاص
بیفتند
دارک
##باک
##بافت
ایذه
روزنامهای
اترو
##واجی
بالها
بالکن
تولیدشده
##بانکی
بانکمرکزی
بیشه
##وکات
۱۴۳
حاشیهها
عنبر
جوابگوی
ابشارها
۱۸۹۱
۵۶۰
واضحی
۱۸۸۷
گوسفندان
اورژانسی
بیاموزند
دانشیار
huawei
منوچهری
استنشاق
fall
mat
مبا
##یروز
همخوان
یکجانبه
متغ
متخاص
میکوشند
ادریان
کندوان
ارتداد
نمایشگری
خوانش
##anb
پدیداور
عینکهای
استراتژیکی
عباسعلی
پرچمهای
عزیزمان
انقدرها
تمدنها
۱۸۸۲
فشردهسازی
میانسالی
ماوراءالنهر
رفاقت
ابخیزداری
بتی
قوز
لارستان
هولو
##بزرگ
##ایوی
##یرز
یکى
توتون
گربههای
##مانیوز
شبهات
دیدبان
چیان
مستحق
جمهوریت
سلم
افتد
محدودتر
سردترین
پنک
دهندههای
بهعبارت
پاوه
رستمی
استرلینگ
سنگینوزن
رویکردها
والای
##ular
واژهی
اسلوب
گالیله
##پوستی
گردنبند
گزیدند
لاکتوز
یعقوبی
امپریالیسم
باتیستا
##شوندگی
الاباما
گورباچف
ce
jav
oh
خا
فات
مستی
هه
##چان
##امید
کهولت
##تیوس
داک
##وردگی
ابرک
عنوانهای
مصلی
شهباز
وزرات
##سترون
فیبری
کوچکش
مزدیس
خواستیم
امپرسی
نشستها
کمپلکس
پیمودن
کورن
معمولترین
انگیزش
واسطهگری
کنفرانسی
کاروانهای
فرقهای
کاستیهای
بهبهان
بگذراند
دورتموند
چریکهای
نکوهش
kr
##تک
##دختر
##هاوس
##مانطور
مسایلی
ایاتی
ابجو
پیان
بانفوذ
کلودی
##ولیس
ارزوها
سریعی
محصولاتشان
مهرهای
پرسیدند
تابناک
قراردادش
دماسنج
ژنر
هشداردهنده
تدافعی
زینک
۱۸۷۳
اجتنابناپذیر
محافظان
خیرهکننده
مبهوت
تندروها
بافندگی
facebook
##وموتیو
بدرفتاری
ایهیاسو
یوزپلنگ
تروت
لژ
٢٤
چرای
برنام
انشا
براید
##یتز
نمیشه
ایسی
جهشهای
تنسی
کوفته
کتابخوان
اغوا
##اشنا
امدیم
تخمینی
کانتور
##aly
انتظارش
##کشها
درختها
##کنندگانی
محکمتر
رمزهای
سروصدا
انزیمی
۱۸۸۴
بزرگراهها
فداکار
باقیماندهاست
برمیگرداند
کانتینر
بلاتکلیفی
ذوالفقار
ادویههای
wi
##گای
بهداد
##ونام
##اردن
##ماندی
نمکهای
##داش
ادمیان
۲۰۹
تعص
بلایی
مختاری
میرع
نداری
دامهای
هشتی
قویا
اونو
بزرگترها
سیلک
پیچیدهترین
جرثق
##گشاید
۱۸۷۵
نریمان
پربازدیدترین
cas
san
سیمی
صاع
هاری
##خلی
##ns
##db
##امال
ادله
علوفه
راهبر
شهودی
ناوهای
اصلیاش
##ايله
رایحه
خوانسار
فصلها
دامان
نمونهبرداری
قتلها
رشتههایی
سرکوبی
دخالتی
بیدلیل
اتومبیلها
خوشمزهای
مباحثه
##تینمنت
خندهدار
دندانی
کنتاکی
ایستادند
تندرستی
##urnal
مارمول
ادرنالین
باثبات
زکریا
ناپیوسته
سرلوحه
pay
چدن
##نى
##۶۵
##یرفس
##راورد
منجمله
سرنو
تنقل
##وشه
تقبل
قانونمند
تاثیراتی
محدودکننده
مارپیچی
تیرباران
کوهپای
سازیهای
##ماندو
تیبا
تیزه
دردها
بدانم
والاس
خواهرزاده
معلومات
میگرداند
شیشهها
قلمروهای
شکافهای
تالابهای
رهنما
ترانسفر
رازیانه
تدابیری
قضایا
چاوشی
گواتمالا
ko
night
رشتی
٩٦
##فوس
##۴۹
درکنار
برجا
امیه
روایاتی
خوشر
مرداب
بخشند
میدونید
اشتر
نمیباشند
تورها
پیامهایی
بادوام
##ama
تراست
برمیخیزد
هورن
گورجیف
راهنماییهای
۱۸۶۵
مناقص
تفنگداران
گلوبال
نابسامان
کلاینت
الکسیوس
کفاشیان
میهمانی
##یرفسنجانی
dl
life
تیب
حقه
خبی
رمی
کلاف
##کراسی
##لایه
##غهای
##یموس
الث
کشاندن
خوکها
دستنویس
بنزن
مراحلی
##هنشینی
##استار
##ویتس
اکرو
هنگامه
انقلابهای
پوشیدنی
امارگیری
مورینیو
سرکرده
ماسوله
پورمحمدی
برگشتند
شورشها
کوبیده
island
ماژولهای
سرسبزی
لازمال
beach
سکانسهای
اگزوز
نارنجک
اتهامی
فایرفاکس
انتیبادی
جول
خمر
##نک
##جرا
##گرند
کنسل
سرپایی
متمدن
بخند
دوربینی
رویی
پرمصرف
بلای
۲۰۰۰۰
جنوبگان
رکعت
نبردها
بینیها
تختهای
بایزید
لایهها
داغستان
پاتوق
میدانستید
فوربز
کمپینهای
انچنانی
اشتباهاتی
دوبعدی
بینظیری
turkey
هیکل
اخرالزمان
مننژیت
گاراژ
sr
اونت
بویل
خبردار
سورت
غزنی
مفا
##aur
##۴۷
##صم
میرب
محصل
الارض
کمدرامد
راهگشا
باربری
گروس
میخواسته
جانگ
اشتاین
##ino
##نواز
طبقهای
ارامکو
پیکچرز
کلمب
ازمونها
هایک
عنصرهای
دروغگو
گناهکار
##الثانی
میشدهاند
برچسبهای
کشمکشهای
منویات
دوقلوی
ترابایت
نظارهگر
خداداد
کریکت
od
tim
tab
##شاید
##فها
درق
میجو
کارمندی
بیوتیک
دیانت
ایرودین
##وتای
سهند
شهیر
پشتسر
۱۴۲
عربهای
##بلندی
تختخواب
میرفتهاست
ارمنیهای
تماشاچیان
ارایشگاه
بارزانی
توالیهای
دراویش
میگذرند
نهنگها
هرزگوین
poly
والنسیا
ke
خض
عدیدهای
مژه
ولا
##پتی
##kh
##tt
مجادله
##اقضی
##افیس
##وبو
موردعلاقه
پیونگ
مدیرمس
اسلامى
بیانکه
لیفت
جوین
برجست
کوهپایه
##atic
اللهم
نظریهی
##سوادی
همکارانم
صهیونیست
زعفر
##خدمت
میتونم
باجافزار
comput
نیکولاس
توربوش
ونیزی
توفیقات
top
vir
عاشی
فراف
لوا
نگردد
##اجر
##صوت
کارگاهی
بیکیفیت
سرچ
دستمایه
ماش
سهیل
بلدیه
نخواست
غیراست
گرفتهام
پاران
مکث
جمهوریهای
نمیفهم
رودهی
کسانیکه
اژاکس
کلاک
شایستهای
##صالح
خمیری
۱۸۶۳
نگارخانه
اربابان
دگرگونیهای
مونته
اتابکان
bit
سگا
نشناخت
واله
##گسی
##بگ
##بوت
##فاهم
##ژنیک
##ورژی
همیاری
توبی
##داست
##جیان
##ضاعت
علیها
کیانیان
هندبال
ولایی
سلطانیه
بندرگاه
##agon
##raft
پراش
پورتو
برترینها
دیلمان
عبدالرحیم
روبرتو
شکوهمند
نیکاراگويه
ربودن
فجی
نگاههای
پتو
##لرز
##امینی
همی
امون
##ازید
##ختهای
داوین
یاغی
بیارزش
##اقا
بالون
مصايب
لیان
بنابه
لبخ
پوشید
نکردید
##گلر
شانههای
الحجج
نازکی
قصبه
۸۵۵
غفوری
کوهنورد
میسوزد
باهو
گروگانگیری
glob
الرحیم
متفرق
sams
lin
ol
ستر
غوغ
کواک
##کشن
##داده
##خوا
##صلاح
میلیلیتر
##رايیل
ملح
مدتهای
##ابقهای
مینیم
اوردهایم
بورن
##ميو
انگیزشی
پرسشنامه
برگشتن
chr
پاتری
یکپارچهسازی
جویانه
مزدور
گرینلند
مناظرهها
فرضیات
هاشمیرفسنجانی
وهابیت
سیدالشهدا
عبدالقادر
pv
تلو
نگردید
۶۸۰
##گشای
##زله
##الای
##السلطان
راهر
رايول
برایت
تاپیک
##تیه
سرشت
سرایی
ماورای
##همراه
تمشک
بارشها
کوثری
زبانشناس
شیلا
اپتیکی
گیجی
فراگرفته
پشتون
##انتز
شمالیترین
شاهدی
تکنرخی
درجهبندی
تیوی
بخوانیم
قاچاقچی
##شیرین
نمیرفت
۱۸۶۲
فروشیهای
چشماندازی
هومر
شاسیبلند
جاودان
network
عیلام
مدولاسیون
استایلز
ابخوست
تضییع
ملاصدرا
سرنوشتی
بوه
جسته
مگا
هس
کز
##گوم
##قصد
##عیر
یکای
نیوم
کاراموز
فرما
ایزوم
##گذرانی
##ولیا
اکتی
محمدزاده
قانونگذاران
کاله
کنترلکننده
یونجه
جدل
حسنعلی
سایمون
ایدین
داروخانهها
خلعت
میرفتیم
فتحالله
##لینا
بتس
هارمونیک
نرسیدن
تخلفاتی
۶۴۰
التهابات
۳۹۰
۱۸۶۱
##tex
prime
نماندهاست
smart
پانکراس
بخشنامهای
اسپایدرمن
بیزینس
her
ted
xs
خیاطی
غصه
پگاه
##ایس
##ورود
##الودگی
روميو
سرحال
##برون
بدگ
##رسال
##ارتباط
کلارد
بارزی
ولیعهدی
طبیب
شوکت
کانتری
گونههایی
انسوی
۲۱۱
دستیاری
امتیازاتی
توپولف
رفلاکس
##une
ایفونها
سوزوکی
پذیرفتهاست
اگوستوس
بیسبال
دلواپ
market
بازتولید
kill
خاخ
زحل
شهابی
فاس
فابی
##رونی
میپذیر
منجی
##کنگ
سیانان
اخری
بلورهای
همهجا
اخته
چیپس
مخبر
##وییها
گلخانهها
تلاویو
ستادهای
هدفشان
##وير
برخوردها
سایوز
مورچه
۳۲۵
عبادتگاه
باسابقه
journal
هایدگر
تمهیداتی
دانشاموختگان
##force
نوترون
قشلاق
همپیمان
فناورانه
settings
تویسرکان
خوناشام
bal
جرح
سانی
لنج
۹۰۰۰
##ضمه
##پروم
همانی
##اریک
دیال
ایوانی
استفاد
تمتع
بالفعل
تعز
ارزندهای
##لیسای
جوانمرد
۱۶۳
پلید
وسیعتری
لوین
هواپیمابر
خامهای
ایدههایی
گشنیز
##ایمنی
space
۸۳۵
سناریوهای
رولز
استبدادی
متخلخل
نغمه
تامپسون
بیتاثیر
ha
light
بتل
##تپه
##ارایی
میدم
میپر
##الج
باسیل
براحتی
املا
امراض
کنراد
السال
میکل
مرید
تنبور
##گذاشتن
بالش
سازندهای
فیلها
دلب
گردشی
غیرفارسی
ولیالله
شخصیاش
تکاپو
کرزی
پشتکوه
فیصل
اهداء
دیدنیترین
اکسل
کامپیوت
معلولین
کمپانیها
مطمينم
پرسشهایی
کنسرتو
غلامان
فروشیها
عرصهها
۷۳۷
گویندگی
جغرافیدان
مینوشتند
بیچاره
کارگروهی
ear
squ
گیش
##لری
دراد
درهها
##ودهای
همبرگر
##انداری
##وریکو
مرودشت
##افزایی
کندو
دانشمندی
میانبر
میخرید
پنجرهای
سفالین
مواج
رفتارش
مییابیم
تراشی
تماسها
بایستند
گنجینههای
کنسرتی
گیمر
۱۸۶۶
بپرسیم
بشنوند
پهلوانان
غضب
دسیسه
میتوکندری
mad
شمانیوز
ظالم
##گاز
##يد
قرق
##داوی
مصح
راهسازی
زمینههایی
اثیر
عبده
پیران
کمیساری
پادتن
تسبیح
لباسهایی
کفار
اسیدها
کتابهایش
تنگستن
راسهای
الاستیک
مشمولین
انیشتین
خوشنام
بوينوس
بنگاهداری
ندیدم
تفتیش
ابوهوای
نابینایان
md
نکا
وول
##ربرگ
##جوهای
##زادهای
##ox
##ورین
برنا
امانی
بیایم
سرسی
قرضی
جهی
هیث
اعتص
خرازی
##استرین
##کوویچ
شاء
فرمانهای
عبارتست
لیگا
بشیر
##ask
##eth
تانکها
بیداد
هشداری
مصاحبهها
فتق
شرکا
همدست
ارزشمندترین
۱۸۷۶
مراقبتی
نشاندهندهی
هیرکانی
انقباضی
بروکلین
علاوهبراین
##ذهب
تذهیب
شگرفی
##المنافع
گریگوری
mri
گوب
##ویدی
درکی
نوسانی
##اتیان
کسى
مستاج
##وکامپ
لیث
سومری
اذن
حرفش
اتفاقهای
حالتها
دمکراسی
توافقهای
عبدالوهاب
ضربههای
امینواس
مولفان
طاقهای
##پایید
بنویسیم
نرسیدهاند
انتزاع
اشوریها
اخترشناسان
زیرمجموعهای
نابسامانی
love
زیدی
شاتر
هوت
پلیت
##چستر
##ندهاش
اوباش
الترن
اربیل
مدالهای
ایشت
##شنایی
اثا
پردهای
نايین
مخوف
کمکها
کامو
عقبی
ازمایشگاهها
حوثی
دیدارها
اخرش
جدولهای
##ival
عقلایی
قصهای
۹۹۰
اگوستین
جادوگران
شرمنده
قشری
مافیای
میشنوید
بسپارد
اچتیسی
ai
٧٠
##یی
##جابی
##دهد
##لاج
##لاعات
##برن
گرهای
ادیسون
اصوات
هیبرید
اغما
##ايیت
خدمتر
##ons
##iness
رودها
انتشاراتی
اسپکت
سادهسازی
گوشتهای
لینچ
چشمتان
مونرو
مشتریهای
نمازخانه
قالیبافی
برترینهای
بطح
پندار
رایزنیهای
اویلر
نامعلومی
تمساح
مپنا
بیرحمانه
اسوشیتدپرس
بپرهیزید
لازمالاج
port
rel
خادمی
ضابطه
##عق
درش
##ستور
برشته
##گرانی
موث
##یلها
##بیسی
سربلندی
مرس
ارتس
میانمدت
##فهان
مستاجر
میلههای
هدایایی
مکری
##جموع
حلزون
##ويیک
ماراد
رابطهاش
وسواسی
سیمها
فرایندهایی
معروفیت
ضرغامی
##طیف
احمدزاده
نکونام
اعتراضهای
سرخپوست
میراثی
مشتریانی
کریستف
خواستهاند
متقاطع
عظام
۱۸۸۳
تکهتکه
نودل
انحرافات
mah
ازانجا
فحش
نصیرالدین
کاریزما
چرنوبیل
فراماسونری
کلاردشت
جلف
عند
##هرنگ
##بیز
بیسک
بینقص
اهستگی
ناشای
میزگرد
ملغی
ابتهاج
صحه
##کوژن
پشتهای
##ادهاید
نسخهها
مسابقاتی
مخاطی
میبارد
روغنها
ابوالفتح
همدستی
رامبد
روحیات
بختیاریها
نپتون
زیادهروی
microsoft
اتانول
اتلتیکو
خفگی
ارقامی
sem
حشد
ظفر
##ارس
بهجت
باقل
##لاسیون
نیاور
##اندام
سره
جماران
##کرفت
مهلک
مهمتری
گلودرد
پیرزن
کالینز
شوخ
مشترکالمنافع
##وتیکهای
گسترد
نیمهکاره
فولر
قابلیتهایی
استرپت
##کریپت
کاخها
میسازیم
قطبش
حشیش
##order
لقمه
اومد
موهبت
یغما
موتورسیکلتهای
فروتنی
تابهحال
اینترنشنال
ak
bir
om
saf
تیش
رنده
فوتی
لیره
پنان
##پهای
کارنگی
اسپی
دستساز
روزگاران
بازل
بازوها
دلتای
شهد
استانبولی
جلگهای
هجومی
بسفر
لایهی
گیریها
سرخپوشان
##ility
روبن
مالکین
سرکردگی
۳۷۵
سخنگو
##tern
خوشمز
برونو
مزدک
میاندواب
زنجیرههای
غیرحرفهای
فجایع
توربوشارژ
لاما
##پری
##cr
##البته
نیکسون
خوبه
پروری
بخشودگی
دوما
زبانهایی
نیمار
ابتدايی
سایتهایی
##فسردگی
حکمیت
استراب
سیروز
۹۶۰
ملاقاتی
وینسنت
##str
تيوریک
بلیزارد
خشنودی
گوسفندی
مزدوران
ماکسول
سولفید
ide
الشعاع
زبده
ترومب
شلمچه
طیفسنجی
تنقلات
مگن
ویم
##نبی
##ومیش
اسنی
سروری
##عدالتی
##وسط
پرتر
محمدکاظم
##رمو
لوگان
رواندا
اعتبارنامه
مورب
چهرههایی
بینیاز
العین
رکوردی
مقادیری
۱۸۷۹
هتک
##سلیمان
بگنجان
گوگوریو
سوژههای
الومینیم
توکوگاوا
dire
from
publ
sel
td
اگرا
حنج
وایر
##tain
سالمندی
معر
##ملر
صنوف
تمامشده
اموزگاران
اورنده
رهنی
تورو
کانالی
مترقی
درمانها
مانگا
صبوری
سرخوردگی
چشمن
وینتر
هلالی
ترجیحات
واژههایی
میگذارم
مشاغلی
ارایههای
مکانیزاسیون
ضدافسردگی
قضایای
##قسمت
خربزه
متخاصم
samsung
بتسدا
dav
سفی
پالی
##کده
##لار
##پارت
##va
##ثانیه
رابه
افرو
افکت
سرق
مسقط
مقاطعی
##شمال
غیرار
مهناز
نمایشها
بالاخص
کاظ
##ited
##ions
اسیدپاشی
لاکه
اوجگیری
بویینگ
مخفیگاه
کالیبر
اعتیاداور
##رفتن
لويیز
جایزههای
مصریها
الیسون
راکتورهای
مموری
دیتای
واتساپ
moto
تشعشع
میشمارد
اتاتورک
ob
خفی
رالف
لکسوس
پف
##پشتی
اینا
##هاشم
خودتون
فرزان
مدعا
نامداری
مردمنه
##درمان
شوره
پیرس
صدوقی
##تاژی
پولاد
خواستهای
##ican
اراگ
رماننویس
##ster
سازمانیافته
##خوردن
۱۲۸۸
کوبین
ناقض
##سفید
ifrs
انتیاکسیدانها
sky
لاهور
نمیگویم
اندوخته
حقوقدانان
twitter
مشیرالدوله
دربردارد
قیافه
ودیعه
sat
win
رونی
سگی
چنده
##ماید
##سنس
##چههایی
##ki
##غن
درکشور
##ویونلو
##راسیون
موذ
اوزان
بیوک
دستبرد
مجرا
مقعدی
انتاریو
موردش
دولتش
منتفع
جامهای
تاریخنگاران
قابلم
##پاول
بیرنگ
نگاهها
مایعی
خالکوبی
عثمانیان
دماغ
ستارخان
فریبنده
رزمنده
گردوغبار
نمیتوانستیم
بعثی
پاراگراف
حقانیت
ثقفی
دویل
عجب
گوران
##نط
##ning
بهجا
میست
مناج
کنتور
##بتری
بدید
بازیسازان
##شنام
##لساز
میدوید
ترکمنی
قطور
کسوت
عضد
خانواد
گیوه
متنباز
نکردهام
ارامبخش
اهدافتان
گوشهها
۲۳۰۰
نکاح
گرافیت
ستارهی
هاروی
یادداشتها
##علمی
۱۸۶۴
ارمانها
لیتیم
۱۲۹۷
مجلههای
سوسک
زانوها
ستیزه
هنجار
پاکیزه
وایلد
متاسفم
اواتار
کبیسه
battle
jul
تایتان
دکارت
نپایید
هپ
کتو
۷۸۰
##دوین
##ij
السی
##شکا
ادریس
بدعهدی
مرداویج
بالله
جایگشت
وقای
فردریش
##وکش
تاکستان
کاشم
پوشه
تابیده
تابستانه
درونمایه
بیاورم
حرص
گذشتهاست
اکسایش
کاتالوگ
جوابهای
جیمیل
بهخود
کیسهای
قایقها
نوشتههایش
۱۲۸۹
##board
قفقازی
خوشنویس
فدايیان
book
ifa
فحشا
انبساطی
بسیجیان
ldl
##ograph
خدمترسانی
سواست
عزا
قصاب
یورت
۵۲۰
ازلی
استاتیک
##یمون
##یتال
مساوات
##الیستهای
ابلیس
ابسنگ
پرشمار
##لسه
فیلمبردار
علیمردان
۱۵۱
موسویان
خوشبو
شاهدخت
توانستهایم
درختانی
رودخانهی
درحوزه
پرچرب
##oth
جعبههای
نمایندگیها
مضحک
ساروج
هیروشیما
کراچی
امگا۳
اقلیدسی
واهمه
b۱
dub
sv
ضده
قضی
نشتی
کانیهای
##لوی
##خاطر
اینههای
##دهزار
منگ
##رکار
الاز
##نگه
##اقصی
تنظیمی
##وسفر
پررون
مثمر
خانات
خرمای
تخمهای
امنترین
شعرا
شعبات
رودسر
نیمهی
زنبورد
نوشتهی
خودشون
محلیها
مشغله
حجامت
۲۳۸
کارتخوان
ویتنامی
تماشاخ
جیبی
پایتختی
تالکین
سورس
##شاهیان
رحمی
ریاضیاتی
خلافکار
۷۵۰۰
ونک
اچایوی
۱۸۷۷
هالک
گراش
ضعیفترین
رهنمون
ژيوپلی
dvd
پروبیوتیک
داوینچی
مارادونا
kir
خفته
قبا
هشام
##لە
##فاف
##ارده
بهعهده
میپوشان
##هایمان
الزهرا
##یاسی
ارارات
افی
دوه
ایرانشناسی
##کیب
سوای
تباهی
گردا
کوشی
چهارسال
پارکی
کرگ
درماند
##مراد
انگلیسیزبان
چرخان
پاچینو
تدریجا
امتیوی
بیتلز
مبلغان
چرخهی
کاندوم
appl
قشرهای
کاکا
رشادت
##وژان
ساتراپ
شاپرک
prem
سلوکیان
پارادایم
بفرستید
ایلخانان
are
b۲
mw
ثبتی
دقتی
نخی
هانو
واف
۶۳۰
باهاش
##ونال
##وسکوپی
علین
غیرانسانی
موسمی
فرمانفرما
شکستها
ساختمانسازی
وسعتی
سهمگین
رییسه
حجاریان
تیگران
پستاندار
جایگاهها
سلولز
رمض
جیپی
نرمتر
سنجابی
تفسیرهای
گنبدهای
حفرهای
البرتو
جویبار
۷۷۷
کویین
جبريیل
بشنود
منقار
فرورفتگی
سیلیسیم
دایانا
بیخیال
dist
i۷
تفهیم
ذهاب
##شغ
##لیث
کنسان
توشی
محق
فراب
بیسواد
پیشوا
پیشدرامد
اعجاب
ترنر
بالندگی
بانگ
##منش
برنامهریز
رسیدید
اوران
لیزا
اثرش
گونهی
پذیرا
ماشینسازی
ششصد
فیزیولوژیک
بسازم
نتوانستم
لیستهای
سرکش
سنجاق
گشایی
اشعری
فاضلی
اسفالته
بدرقه
فايزه
گلشیری
اژه
جیره
دث
ذبح
زوار
عیان
پولیت
چکا
چچن
گوز
##۴۶
موبد
بیفت
##وزیت
##وشا
ترنج
##ینیوس
##ویتز
تجربهها
بدینترتیب
شیوهها
توصیفات
نقدشوندگی
محتشم
##جعفر
##نظری
کسبوکارها
ستیزی
چانهزنی
خودارضایی
gn
ts
بپرد
لولا
##نمی
##خری
##hone
میاف
نمازی
سرهم
ماکت
پساب
ابقا
نقرس
##وبار
اولتیم
##منظ
باروی
تعاب
وقفهای
دریافته
محلاتی
زنش
کریگ
##asc
ایلند
ممنوعال
هیدهی
هورالعظیم
هیدروکسید
همایشها
##پتوس
کنسولها
عطسه
طعمهای
پورتهای
کینزی
طباطبايی
معافیتهای
پدرو
نمیبینیم
who
نقیض
شفقت
عایدی
##ابراهیم
نایبالسلطنه
نامحسوس
long
mess
سمیه
فنگ
٢٢
پونه
گولد
##سابی
##ساوی
##چراغ
##یتسو
##اییان
مدبر
پیشبین
سیاس
بانکداران
سینوسی
سنگنب
نیمههای
ارامشی
نبش
باغداران
امادهی
##زلند
کفن
جريت
کشیدهاست
گردیدهاند
پورتوریکو
برخاستند
الایندهها
وتو
چکها
##lin
میپیم
میبرم
استواری
##یاک
بیسر
دیکته
##ادیه
ملکم
##وکین
##پیو
##ويیسم
سراوان
حملاتی
ماننا
صداهایی
اتحادیهها
تراس
##reen
اکسپرس
تلویزیونها
۲۹۹
تابلوها
سرزنده
صلحی
لکنت
رباعیات
کاووس
pdf
مردمنهاد
ga
lab
map
یوتا
بهايیت
##ندار
میه
یکماه
روه
##مانها
##لاژ
##باشان
کمرد
کمیل
ادن
بینام
دورە
پایگاهی
##اصلی
زیرگروه
ناوش
پولس
اردوان
کدها
توانستهاست
امپد
بشویم
اعطاء
##ape
تارنمای
۳۹۹
بازمیگردند
عرصهی
باشکوهی
میپزند
باکسافیس
بیفزای
سوفیا
lu
بکن
بولت
##نایت
##حض
میبینی
میسپ
##کنشین
قراد
نوترین
علنا
##لوتی
##ایرن
ماراتن
تایوانی
ظرفهای
نگاهش
خواستن
##نتیک
قالبها
توصیهای
ذهنشان
بادکن
۳۲۰۰
##مارند
گندالف
شادگان
هاستل
تیرهتر
کاردینال
کینز
حسگرها
ناخنها
بطریهای
دسرهای
هاپکینز
برزخ
ماخوذ
خوداگاه
دایناسور
بیبهره
شپش
cross
mx
ter
view
بشم
طوی
چسبان
۷۳۰
امشاسپ
سالوادور
خودخواهی
خودایمنی
بیقراری
مدفن
نوپای
مصدر
کلاهی
باروت
جدیدتری
تکاب
پیرنیا
نمیبرند
خطرناکتر
استادانی
بشارت
گزینههایی
##الدینی
گنجاندن
تقلیدی
نابودگر
سکونتگاههای
بلغاری
##يیدها
القاء
گویندگان
بهسختی
لپتاپها
دردسرهای
colle
معصومین
خسروانی
صلواتی
ارتعاشات
تودیع
first
gd
lang
mir
rh
طفره
فینی
مگان
پسی
درفش
##ینگو
میسیسی
برسر
قرابت
مجر
##یکت
ابلیمو
##گیرها
وزنهای
نیرنگ
مخمل
ایرانیتبار
پیراه
۱۷۳
دستورالعملی
##ora
بندگی
پنبهای
خوردهاست
دردس
پروتز
همسفر
کمبودهای
برمیخ
وبسایتها
۱۸۶۹
سیاستگذاریهای
سواداموزی
اسرايیلیها
بعثت
دوشیزه
بفتا
صاعقه
bel
cb
dm
fda
ox
tit
حیا
طراب
قادری
گاب
##عفر
##ستوی
بهل
##ودیک
تاوان
##اسانی
##یشکل
##شدار
اقدس
##ايف
قدرتش
وضو
##نتاین
گازپروم
سیمپیچ
##isc
سیراف
عبدالناصر
state
تياترهای
خاطی
هیجانزده
اسمانها
درهمین
لحظههای
کیهانشناسی
نگرفتن
غولپیکر
مینواخت
برامدند
شناختهشدهترین
ابطحی
ببخشند
میچسبد
کاتالیزور
واگنهای
vega
پریشانی
دلواپسان
cv
زکات
لستر
هذ
یوکاری
##ارمونیک
درزمینه
##اسای
سربلند
ابهر
انجمنی
بازگردان
پرندگانی
دلهره
گلوی
شاهسون
مارکوف
اسپکتر
نداشتید
عملیاتها
هشتصد
بورسها
فهرستهای
نقدهایی
پولیس
زرند
براثر
درهمسازی
برانگیختن
##کتیو
soft
رکابزنان
پنگوين
ultra
مفاخر
وقایعی
میسیسیپی
nt
ذیص
رالی
سولو
چپاول
۹۸۰
انند
اماد
استفادهای
تنشی
سیس
کلاب
شمخانی
جنگیدند
جزم
نورعلی
رواندرمانی
سیاهرگ
المع
گزینشی
##ache
##وحش
مادورو
اضطرابی
مانیفست
add
هریسون
تونلها
عاشقی
۱۸۵۷
سولفور
وشمگیر
کمیساریای
ah
cry
file
hm
ve
بث
جویان
لاوی
##لدان
افشانی
سرخاب
مرغان
##وساک
دنیرو
ارزها
گذشتهی
ارايهشده
صدوق
اسیبهایی
مرزن
ضروریات
ناتالی
دایملر
تایلر
کولون
هواداری
مشروطهخواهان
بهمراه
میترسد
لپتاپهای
منحصربهفردی
قوسهای
حاتمیکیا
فرناندو
فیزیکدانان
house
عبدالمجید
نامطلوبی
مظاهری
موعظه
مسجدالاقصی
bur
band
opt
pu
ray
بى
گاند
##سبی
##یدیا
کارلس
کارتل
اسطو
استفن
اتاری
سیست
##کتومی
اخاذ
کوين
##ویسم
۱۲۸۰
##اسیک
##کوههای
بیرم
##esi
هاگو
دخمه
هیدرات
ipv
لیبرالها
منچستری
عسکر
مقالهی
نینجا
server
کنسروات
تنگناهای
تایتانیک
معاینات
بمنظور
جفرسون
حریص
نيوکلاسیک
مدیرمسيول
dsm
توپی
##وزومی
هرت
پیشنیاز
پیشخدمت
اتری
پیانی
دیدنش
سفالهای
مینوی
پدرخوانده
۲۴۵
مسجدسلیمان
واکنشهایی
جیحون
سويیت
##ump
ویندوزی
پلاگین
death
زودیها
حفرهها
میدانستیم
۱۲۸۷
بلغور
قدردان
ايیننامه
گرجیها
حاتم
زدودن
کوجیما
علینقی
mb
جوم
جوه
ژوهانس
##ius
##عمر
##by
میپذیرفت
میپرور
بروش
انزمان
##ولاک
تاجی
##تیفیک
گرن
نسوز
کلش
علیپور
چهارگاه
زبانان
اوراکل
پنجساله
فراطبیعی
شعاری
##قاقی
موتورسواری
خورشت
خوابالودگی
اژدر
##ola
مهارتهایی
درحالیست
سالنها
کنفرانسها
نمیرسند
توریستهای
صلاحیتها
spe
پرندهها
ips
میاندازیم
پرکاری
رومانیایی
حبابهای
زرهپوش
حبابی
بهنحوی
نافذ
##طبقه
ترمودینامیک
global
تعزیری
ذیصلاح
bay
لوری
لنت
وتر
ژولیت
##iet
##صریه
برنگ
داغی
الکال
##هرمز
ماکز
بداهه
##خصصی
##فاژ
کتابدار
ریوند
شیوخ
کلیتر
مذاق
##ضرت
##نته
نورالله
ویژن
بندها
حسینقلی
گستردهترین
اکسپرسی
مردانگی
درمقابل
التفاوت
مقتدی
سرشاخ
تکاهنگهای
کنشگران
ربیعالاول
دهلران
هاوکینگ
میدرخشد
همجوشی
یوحنا
abc
duty
link
سماع
فوند
لیدر
مضاع
پط
گزند
یم
بیهم
##انهتر
##الیک
هیولای
##لسر
بانکهایی
شهراورد
غیراو
خرابه
نقشهایی
ملم
حموی
##orm
ضررهای
نیمهتمام
رنجش
خمیدگی
اولیاء
مصدومان
جانبداری
زیانبار
نگرفتند
رخدادها
بیاندازد
اپارتاید
رنگدانه
باواریا
میسپارد
شقایق
لجن
##بوری
##بیاء
##ios
دربهای
##ریحی
##ترون
سرپا
دارايی
مردد
مصلح
طبابت
نمیگیر
بردیا
پوشاند
پلیر
عبارتهای
پیشنهاداتی
جدولی
##کشیدن
مسابقههای
مراجعان
فضاهایی
گشتن
تغذیهی
فرسایشی
تمیزی
محرکها
برمیش
رسولالله
##اسلامی
گرینویچ
##باقری
ایرلاینهای
اسپیرز
جاروبرقی
اکستروژن
مینشست
بوگاتی
مسوولیتهای
بلندپرواز
حنجره
کاشمر
ber
dom
dos
get
ut
xr
جايی
شکنندگی
طفل
لکی
ژاله
ژيوم
##خرا
اینجای
##لیست
##ونایتد
تاخیری
معرکه
فرزین
##شدند
بخود
ادراکی
##راتوری
هیوستون
##قلم
خریدی
سنگسار
خانوادههایی
شعلههای
کانگ
جنوبیترین
ابرنواخت
نکردنی
فرودو
حکمتی
کرمانجی
ریسکها
##میرزا
توپوگرافی
خاوران
میگرفتهاست
استراتژیها
پالایشگاهی
قهوهخانه
نقصهای
فاجعهای
ورشکست
خندیدن
تاتنهام
قوامی
ایزوتوپهای
پوپولیستی
موتورسیکلتها
همجواری
بیسمارک
موقوفات
##anbul
کنسانتره
sin
she
جعب
پانیک
##رشته
##سوری
##جیر
انش
خودخواه
توک
ارنا
بیاسدی
افضل
دونده
گرالت
مرزبانی
عمدهی
اشرفی
شکوهی
چندملی
بانکدار
##راهنمای
همانطوری
تیمسار
##مزدی
تسمه
کریتوس
خدمتتان
خشکبار
حکمفرما
رضازاده
واسه
دشتها
اشکالاتی
اجارهبها
ضخیمتر
قايمشهر
مجاهدان
iphone
قشرها
هرمس
اودین
تذکرات
ناسیونالیسم
واترز
تشعشعات
ادلاید
گسیخته
رسلمانیا
ویسکوز
تواضع
همسالان
کواکبیان
fact
fire
hum
##uction
انیس
##ترت
موص
معوقه
##وزید
شهرری
بازطراحی
دوربرد
اعلای
##کتوز
قبوض
گرداور
گردانهای
نااشنا
ارزشترین
ندیم
##کاریهای
بعمل
اثارشان
##شناسانه
۱۶۲
البسه
۲۶۵
ذهنمان
دیرکرد
العابدین
مسوولین
نادان
۱۸۷۴
thread
میسپار
١٣٨
work
design
پرکاربردترین
هشیاری
مستهجن
پرمخاطب
پنانگ
direct
تراج
نيون
##ورگ
اسام
ایزاب
مقیاسی
بدخیم
فیلارمونیک
##بانگ
مدیرعاملی
ساعدی
مستبد
لیف
اکبات
قدرتها
صفاریان
مرگومیر
ولگا
ضرری
عبداله
اتشگاه
وابستگان
بستهاست
قصور
منتهیالیه
##وفیلی
بازمیگرد
قاعدهای
واسطههای
تکفیر
رینولد
##گروهی
ایبیام
اندرسن
سنگفرش
معرفتی
bank
بگریزد
صع
لعل
هگز
گشتی
##جرد
##ارفی
راکول
راهروی
##یدار
##اسکی
هرمزد
میتوانسته
اجدادی
نقایص
بازان
تنب
چهارد
چیانگ
مخر
مکینت
شروعی
##نتینو
ویژوال
##پردازنده
جلوس
تصویرگری
وبگاههای
مدارج
سکایی
مغزتان
گذشتهاش
جبههها
جراید
چرخاندن
##خرج
اندازهگیریهای
مخلوق
فاعل
بخارست
جوشهای
فوریتهای
۱۲۹۸
بولتون
سیارههای
سوسنگرد
۱۲۷۰
ریکاوری
جانورانی
فرمتهای
تخلخل
کاپیتول
بیفزاید
گردانندگان
کمچرب
فرافکنی
هادر
##قدی
##اربه
میچسب
##الیت
باتل
##شتههای
همنوع
فرع
یاور
سرایند
متدهای
گرت
اقناع
دانهای
سیخ
عملگرهای
میخواد
سرمایهدار
اپهای
کالسکه
##التون
مارکی
مشترکا
۱۶۱
##قرمزی
انتظام
چینگ
احمداباد
گوشهی
مراجعات
نیمهشب
الممالک
رقمهای
لایپزی
توزیعی
##نزو
تالشی
شاعرانی
مرورگرهای
ارکید
سبزیها
##ula
دونگ
ضرورتهای
خطیبی
پیوستهاند
رقصنده
رجل
گویشوران
امانالله
گلوگاه
۱۸۴۹
اطرافیانش
مهیب
کاستیها
نشیبهای
حنفی
فرمودهاند
ثروتی
غواصان
خودشیفته
istanbul
چندملیتی
line
قاس
ناله
هجو
چق
چیک
##وشان
##مخت
##جینگ
##عاب
##bench
راسی
استراس
همنام
اسای
بیعدالتی
##نیوس
ایپ
اعلا
۲۰۳
##ربن
کلارا
##لبیت
شیرخوار
سردتر
کدورت
درسهایی
درامر
تقاضاهای
درمجموع
##ایمکس
لمب
وایبر
متالورژی
roy
متخلص
##وپلاسم
اسلحههای
طاغوت
کنسرواتوار
مضاعفی
dh
d۸
pop
تترا
تزلزل
ظریفی
لابد
پریم
ژيو
گودی
##گت
##فام
##yr
##اتیکی
تاویل
خواف
ویستا
اعو
جنبی
زندی
شهلا
نهار
مراعات
ریور
جهانگردان
هدایا
حلوا
##زبندی
اختیارشان
امیدها
ایستگاهی
صحبتهایش
نامهنگاری
ازادیخواهان
##els
##قبول
دگرجنس
پیشرونده
عالمی
اندرونی
اقلیتها
بااینکه
بپوشاند
دلیجان
والدینی
ناسیونال
نااگاهی
digital
فیمابین
##منظوره
div
حشر
ننه
۵۸۰
##راری
##نفری
##جاتی
##قش
##خدم
##ثور
باکره
انانی
انوار
##ولز
##یتین
مسحور
##وتس
بزم
گروهبندی
واحده
نوردهی
ورزیده
۱۷۱
مدرسههای
سیاهکل
بیاحتر
تندتر
##cher
سیلویا
الودگیها
فهمیدند
نشانهگذاری
بقره
ابهاماتی
بلاع
سپاهیانش
عجول
دندانه
سرسختی
صلابت
mini
زامبیها
point
هراکلیوس
خازنی
گرداگرد
ddr
طارم
٨٠
٩٤
##فکر
##صف
درنی
##یرین
روتین
تاحدود
##اسن
معاند
الواح
مدرسی
##بايو
##وزر
دورههایی
میخوای
گلچین
کشتیسازی
چیزى
مدارگرد
اکتاو
منصف
اکسون
زودگذر
مهاجرتی
ریشهشناسی
حیاتش
استرسهای
کاغذهای
بلیز
عروسکها
اختلالی
۴۹۰
دالاس
بپرسد
القران
نظرسنجیهای
تلهف
استعمارگران
مستعمر
نویسه
زنبورهای
کرتیر
بلامانع
محرابی
science
میانوعده
درادامه
ساتر
فصی
٦٠
کتل
##ليان
##شرکت
##get
همدل
##ازو
تاي
توست
اوینی
معدوم
ادینه
##وسین
بخشنده
ثبتشده
دستورکار
معروفند
نمونهگیری
۲۱۷
سمیت
ریسکی
##سیلین
ارسنیک
امینو
مراجعین
فواد
زلزلهای
۸۶۵
ناقل
بیسابقهای
افراطیگری
زوجی
business
برافراشته
میرداماد
ایزابلا
oct
غایت
فشن
ونس
گونی
##gen
بههنگام
##امعی
برههای
برشهای
اناک
روبین
افکنده
##گیرندگان
دهن
##منس
کلفت
کوشان
خارک
علیمحمد
جهانبخش
کلیشه
نمایشنامهای
رقاص
مینگری
داستانش
مدرسهی
۲۱۴
۲۳۲
##ames
گذرگاههای
سیراب
مخالفتی
کشیدم
امیزهای
تثلیث
سپهری
۱۸۷۲
سرودهاست
درایور
ریکاردو
صرافیهای
کاریکاتوری
ژرفای
مهدکودک
لوبیای
ham
hist
water
جاف
حامله
خاویر
شویی
عیس
لارا
هانگ
##دلیل
استونه
سالک
اسودگی
افقهای
شکاک
##فیز
اطهار
بازارهایی
تبری
حساسترین
##انسکی
حقیر
دنبالههای
##صیان
نورنبرگ
لبهای
پلوتو
اختیارش
روابطعمومی
اهنگهایی
رستگار
##اوای
کفشها
اشناست
پرتگاه
##چرخ
هاوانا
اگاهیهای
روماتیسم
فرانچ
##معرفی
سلسلههای
سروصدای
نایاب
##ste
اندیشمند
ایزوله
شنیدهام
کنشگر
اظهارنظرهای
پویای
بهمعنی
قافله
بنفشه
انفعالات
کیلیکیه
میایستند
کمردرد
منچستریونایتد
بصیر
سماق
نراقی
وولف
##بدن
##امیر
امرا
##لاعی
##ومندی
فریده
بیکن
سرخه
##نیفه
##اختی
دورگه
تنهای
هیلی
##ونیوس
حسنه
دلیری
شهناز
میخک
نداند
یادش
کامکار
کمیسر
##ورشناسی
##وسیوس
یهوه
۲۱۶
ازادیخواه
امیدوارکننده
بمع
خللی
##ساختار
گیلبرت
##ids
ارامشبخش
قالیهای
سفارتخانه
اچدی
اگزی
قناری
نمیکردیم
اوبونتو
کوبیدن
۷۱۰
هانتر
میترس
باقلا
طهماسبی
ساینس
کانسپت
سوءتفاهم
جهیزیه
بیاحترامی
msi
word
جوسازی
رور
شي
شرای
ژور
##پلین
میسون
##شتاب
فرمال
کشورم
##احمدی
##ابلای
مشکلساز
##ستیز
سنب
تخمه
مارا
پرسپولی
تیرههای
مجموعههایی
کمپوست
بیتفاوتی
گشتاسپ
لیندا
محلهها
اشغالگران
نوسانهای
ملاقاتهای
نعل
مینامید
مداوا
۵۹۸
اویو
توانمندیها
خرسهای
##لاطم
ممتد
شکیبایی
استریل
ابوهوایی
فیلمنامهای
میسوزاند
اگریپینا
دردسرساز
لایپزیگ
eff
hero
low
جیش
زاب
هارا
##سکا
##ضد
##عبدالله
##طع
##ов
##انکا
یکمیلیون
روى
اسرای
##ماش
##یسف
اندامی
تبصر
##وقا
علیقلی
سنخ
یافتهای
اروین
##تاون
سودجو
ایتا
پلمب
رونقی
تنظیمکننده
سرزمینهایی
سعاد
##طرز
منصفه
عقبماند
۳۲۱
هایپ
متمول
اسانترین
فریمن
الحمد
جنبهی
لوکیشن
ترانههایی
مفتح
کردهبودند
##پاشا
طاقتفر
مدرنیسم
شمیرانات
جاکارتا
طایفهای
پرایس
ژولیوس
لبخندی
ضدهوایی
الازهر
tar
xp
زرنگ
صابر
طهران
گویان
##شایر
##باند
##پید
درهی
ازن
کهیر
راویان
روض
تاول
##گیها
بیخان
هرقدر
نوادا
مراب
پیشد
کليوپ
سیاحت
اغا
لیژ
اپت
۱۵۳
##اسیان
##وسیا
رقابتپذیری
المقدس
ساینده
۲۸۰۰
وامید
تردمیل
جوابگو
فوربس
هیلز
یونیزه
کرکس
مسنتر
سوارهنظام
شمشیری
نتیجتا
حکمرانان
وایکینگها
تمثیل
gsm
تارت
ثقل
جي
حصیر
گاوی
##نسی
##صرف
##ادون
بابر
##گرین
خودمون
النا
##اندز
ایلیا
##وتنیک
بازنگ
چندجانبه
۲۰۲۵
جامگان
چهارمی
تاریخچهی
علاج
تکثر
کانن
پذیرنده
##ating
ولگرد
رونوشت
مداربسته
##اجتماعی
حرفهایش
همسویی
##طلبان
##idia
وینستون
اریاییها
##ney
عجین
دغدغهها
ایندهاش
غذاخوردن
gaming
بازنشر
اراگورن
هاگوارتز
استونهنج
mov
oper
s۷
بگیری
صمغ
٥٠٠
##اگان
##مثل
##ینشین
المت
الويه
##شکوه
ایوی
##وبد
##شمند
افراز
گلشن
نگویید
مسیرهایی
##ini
تسعیر
سیدمح
گشتو
ویلای
طبرسی
واپاشی
ناهنجار
سلوکی
دکمهی
تتلو
بهاینترتیب
کاربید
دربرمیگیرد
men
سغد
نزه
نزده
پوندی
##پتور
##انى
میشمرد
داوودی
اوژن
##هرست
دیور
مقدر
جمجم
بازهی
بازدم
تعظیم
زندهای
مانندی
واقعگرایانه
شکلها
۱۸۲۰
مدتزمان
کرام
نگرشهای
نبایدهای
۲۱۲
شهرداران
عشاق
محکمه
انتقادهایی
یارسان
پانور
خشونتها
کلاهقرمزی
خوراکیهایی
سفارتخانههای
دروغگویی
سارتر
تظاهراتی
انیمیشنی
نیترو
الکسا
پاشیدن
۶۱۰
پاهایش
نیکوکار
بیثبات
بسپارند
سوداگری
کادیلاک
فاستر
لل
هز
ومن
##فلر
##ym
##uary
##ستهاست
##وییم
داچ
نماگر
مشاع
اقتضای
##ونیها
گرفتاریهای
فروکتوز
علیخانی
کمککننده
##وين
حاصلخیزی
۲۶۰۰
##وترش
۳۶۰۰
تونلی
##اتورها
کافکا
بدیعی
دبیرستانهای
مىشود
##rip
فراوردهها
هماهنگکننده
سیارهها
پورتال
اساتیدی
قراين
بمانم
ماجراجوییهای
انتیاکسیدانهای
میگرنی
خوشایندی
لنگرود
غنیترین
خاقانی
دیزاین
فيودالی
group
فیاض
##خانواده
honor
تروتسکی
طرابلس
اخاذی
زول
صابری
قت
پوینت
##تب
##دوست
##۷۹
##طبع
##ستاین
##امیس
برطبق
مویر
بیپایان
اتا
دوراهی
چندصد
علتی
گروپ
تقوایی
چهارساله
میلیونر
فردو
سلنیوم
اپن
فراست
مغتن
۱۷۲
وزنتان
عصا
بستهی
لایف
اکسپل
روبروست
اشتراکات
وانپلاس
پلاسمای
تبعیدی
محوطههای
پراست
جنایتهای
واضحتر
زراعتی
پختوپ
گشایشهای
لهستانیها
##ather
زاویهی
فهیم
گیبسون
برافرو
دلقک
hor
live
دنگ
شازند
فیک
وایمکس
ژلات
گوتن
##بوی
##۴۸
##اتین
##لیش
نوایی
نسرین
چندمنظوره
اندرون
مراکشی
مکاش
بحار
کرنر
چشمش
حلز
تیربار
مدرسان
روانگردان
قابهای
نجار
ناباوری
دوستانشان
شهرداریهای
پذیرفتنی
علامتهای
۹۱۱
اکسیداتیو
قناتها
کشمیری
هوانگ
صفیالدین
برخاستن
میپنداشتند
بسرعت
میفرستاد
##ابراهیمی
american
چکاوک
هیدهیوشی
تلهفوتو
cu
hol
ka
non
غايله
ژي
یول
##بکر
میامده
رابی
##ونس
##فتهای
فرخی
ارادی
قراری
##قیس
نوتیفیک
##وسو
##کتین
نظراتی
پروپاگ
فروشها
هنگکنگ
##پیان
جویند
نمیگ
نوراف
عرضهکننده
اسپر
لوسیون
نبایدها
سیاهان
##rome
ابتداییترین
شیخالاسلام
سورانی
تخمگذاری
دیوانگی
سوارز
قبرهای
نیکولا
عزالدین
برونگرا
پاشید
##ella
سونات
مینیبوس
میانداخت
رینگهای
میفهمید
الجزای
news
کلینیکهای
طارق
دیالوگهای
هشیار
دوچرخههای
امبرلا
ژوهانسبورگ
مکینتاش
ger
لورا
##کاسی
##yle
##do
##ظن
##ου
##ارای
##الهی
##یتور
نیابد
##اساز
الوه
##افون
بدح
بازیکننده
چندرسانهای
۲۰۵۰
ارتجاعی
کلک
ساچ
شورولت
سنبل
اموزنده
امنتر
##alth
تابان
یهودا
پیکاپ
مشاورههای
۲۸۵
پیمود
تریپ
دودکش
مساعدی
توتفرنگی
نشریهای
بروجن
گالریهای
هیرمند
عامهپسند
مظلومیت
دلاوری
ترجمهای
الرشید
کبودی
دوسویه
پوکمون
بیمعنی
بطحایی
ارتساخ
db
det
rac
جمی
حرب
رادر
وويل
ینی
##وامی
##نکو
##ih
##خانیان
##face
##ودریا
میوهی
##سیاری
بودیسم
کنیسه
بیسیک
##شیبی
ایهای
مجلهای
داشتی
##احمر
جامعیت
میرزاده
اپد
##ورشیدی
برجک
بناپارت
مزید
متعاهد
##ita
مقرری
سایههای
بمباف
##ota
جعاله
##ents
مکتبی
sport
خواربار
۷۴۰
پايیز
۱۸۵۹
ترومن
سربداران
iran
جاودانگی
غریبهها
ضدافت
travel
##پندنت
بپوشانید
لنیستر
کامپیوتکس
مناجات
رمضانی
tb
دنج
مفتی
پتی
چمد
##الغ
##ویوس
تاسی
##کنز
اسرا
بیاهمیت
دستانش
پایمال
اشپر
##ارتن
هیون
##لفن
جایگذاری
جهانبینی
شیرد
شیيی
فروشهای
سفرای
##وزیک
عملکردها
ولدم
روستاهایی
##دانههای
دروازهای
مدرنترین
##urity
برمیگزین
شهرتش
میراثفرهنگی
جراحیهای
خمپاره
جانباختگان
بامبو
زادگان
##بلیله
لارو
پیاچ
محافظتی
blue
چمبر
یادبودی
geforce
بیانیههای
نوزدهمین
نصیریان
##پژوه
فراوریشده
ژنرالهای
بگنجانید
bet
dyn
mass
sql
بادر
بلاغ
ذغال
##کرک
##وستی
##ازیا
موزام
##ایدو
##باغی
انتفا
پیشقدم
تنومند
بالین
میلیامپ
میدونم
همانقدر
##لوپ
گلادی
انگاشته
سفرهایی
اپاند
##ویرا
برگزارکنندگان
خصوصیاتی
ولنتاین
##نشال
مشاورین
لایک
شارجه
۳۱۵
مستندهای
اپلیکیشنی
کافران
یاداورشد
پرستویی
فرمانروا
فرازمینی
ابداعات
غافلگیری
لرزهای
فلويور
ماهرانه
تیغههای
##پانک
میپندارند
تراموا
مژده
ثروتهای
خودکفا
هندوراس
ازانجاکه
مرابحه
esc
زایند
طحال
طلیمی
نزند
##قار
##يیت
##صله
##ترک
##یشهر
کارکردن
ایرن
ایگور
هستیشناسی
نامطب
تولستوی
پرون
پرویزی
تبتی
غیرکار
خطابه
ناگواری
میرباقری
ایرانیکا
کامبیز
نوعا
##پیوست
##کلید
##زاقی
پلین
اصلح
##itz
کورا
سالمترین
کاردان
ناراحتکننده
شیبدار
بوسه
انداختهاند
۱۸۱۲
گرانیت
رنکینگ
زنبورها
##تیمور
دربیاید
نیکولای
راهروهای
ضدالتهاب
نظریهپردازان
جسیکا
گومز
پارازیت
شمسالدین
گيورگ
ليوپولد
جرثقیل
السالوادور
پررونق
lim
mil
sign
نثار
هلاک
وصال
اسلیمی
##اقلی
توسع
بالدوین
کلوز
تباه
شنبلیله
اغاج
پردهها
علیاباد
نقشش
##مالان
یادگرفت
جوخه
##ato
کاربردهایی
فرمولی
رزون
تلفنهمراه
پانل
##جزایر
نایروبی
##پلکس
ناسزا
شتابدهنده
کامپکت
دزفولی
جنایتکاران
میشنوند
عاشورای
۱۸۵۶
الیاژها
شوخیهای
معضلی
مولفهها
نمیگذرد
میجنگیدند
پیداکردن
mh
nav
ثع
ردهی
فنو
پماد
##وحی
##قالی
##ych
##gs
##ارزی
درف
میگریزد
اینهای
بیحس
نامیدن
دلفی
##مدتی
##کسین
ورون
ریواس
##وارا
یافتم
صفاری
بودنشان
نگهداشت
##ala
شاهدانه
دمو
همسرشان
اکسباکس
گرانبهای
عمومیت
ثروتمندی
هلنی
اظهاراتش
باتلاقی
گلدمن
اکراه
##aint
جاهطلبی
پیشتازان
تایرهای
تنکابنی
ویسکان
قریبال
معذرت
انصارحزب
الاقصی
اولتیماتوم
هذیان
کليوپاترا
پختوپز
gb
hand
جمیع
حیط
زجر
وافر
پانس
چطوری
##ناب
##۷۶
##انیسم
الخط
اسلم
خوشتان
##وریزه
##الیپتوس
انجیلی
##گانگ
##گذران
هیوز
##بالایی
ادامهدار
میانشان
گزارههای
خرمال
هیچی
تمامتر
پنجشیر
هدفگیری
مناسبتی
ارزشش
لوون
امرالله
نجاری
لغز
نانوم
گمارده
العظمی
انتیوخ
استراتژیست
کوبید
لیموترش
سهمیهبندی
شفافتر
بیاندازید
توطيهای
سفتهبازی
طوفانهای
نترسید
اسپرسو
ولدمورت
ras
تشت
رامی
رپر
سلاحی
##ارام
بااست
راتن
کاروتن
دوو
##داون
##باء
##گریزی
دلکش
شبدر
ریزم
اپاچی
مینیمم
نمیترس
##خانم
صندل
زیباسازی
شعرش
##osh
امپراتوران
start
تعهداتی
درماتیت
انزجار
##کینسون
مبارزاتی
کالیفرنیای
همکارش
توهینامیز
touch
بنگالی
کازرونی
ضمانتنامه
فلاحی
sup
code
دیسکها
جنگافزارهای
مفعول
پلاتینیوم
سفارشهای
تماشاخانه
dem
gi
mid
بچین
صمص
لخ
ننش
یالی
##کلیسای
##بام
##قبه
##ien
##ja
##ст
##ینجر
موزایی
##اندارد
##شکار
اقاب
۲۰۲۲
هیبت
##اپوری
وقتهای
مخاص
ريیسکل
جانشان
بحساب
##inc
شمالغرب
جشنوارهای
عهدهی
دامنهای
کارهایشان
اسموتی
##غذیه
ماسکهای
برمیگشت
##کمک
تقدس
گذارند
فریبرز
وصلت
جسدش
تروفی
##berg
بچههایی
لاستیکهای
بیکینی
رشیدپور
زلزل
گمانهزنیها
جیکوب
نوستالژی
لاکهید
باتلر
اگزیستان
sing
صمت
غاصب
##کستر
##iation
##طاع
استغ
##ازهاش
نیابتی
##رکردن
کارو
الین
بیجان
دوار
اماج
##واچ
##وشهر
دولتشاهی
هیوم
زیرس
کوارتز
تعدی
یادواره
##وکینز
اپنه
پیرمردی
##any
کانتون
##یندل
نوشتههایی
شمالغربی
اشکی
اشکان
ضدیت
##omb
خلج
خلفا
فازها
زنیها
فریبیاسدی
همکارانتان
لوکوموتیو
##aker
##over
تحرکی
۱۲۹۳
سوپرجام
محتواهای
۱۸۵۸
شلوغترین
پلیمراز
ارکانزاس
هلالاحمر
امپراطور
میزیسته
چوگان
فطرت
اروماتیک
اکباتان
گشتوگذار
ben
gard
tre
ارده
الیه
دفت
مگی
گنا
گریت
##سلام
##uz
##fr
سرپناه
ابپز
داشتههای
پرود
پراهمیت
ارزاوری
##بریا
##سازیهای
##ايه
سلبی
رایجی
میناب
نمیپرداز
تورج
درامدن
##زاعی
مبتذل
امپول
شاخصه
۲۱۸
قوهق
پیچیدهتری
ضعفها
ردیفی
اتوبوسی
فرانکها
اوپانی
رنجبر
مارتا
##ips
مودمهای
قرصها
۷۷۰
فقیرترین
مادربزرگش
دهکدههای
مجسمهای
فلاحت
abs
cortex
اسلاوی
نبیند
درویشی
##فیلم
بیوشیمی
ضعفی
غزلیات
پنکیک
مزدیسنا
خبیث
lc
loc
m۲
test
حما
قوش
وفاق
٢١
چکی
گریف
یز
یالها
##iy
##ایسین
استایرن
##تیوم
دیسکی
##ماعی
دستن
ایرانایر
بازشدن
ترون
بلاتک
پردهی
ملین
۱۲۰۰۰
کرید
بنابرین
جوانهای
اسپاتی
نوشتارهای
فشارهایی
مالایی
سینماست
پژوهشهایی
ژانرهای
نبرده
سپردهگذار
پیموده
##نسن
دیرالز
تکنولوژیها
خسارتی
لینکها
گیلمور
خزنده
زهد
تخصصهای
۱۲۹۶
گاومیش
۸۱۰
چاقوی
پرکردن
مبالغه
ربکا
نطفه
دندهها
پودری
نگریسته
پترولیوم
نمیشناخت
restaur
پاییندستی
سکولاریسم
قریبالوقوع
دیرالزور
dark
nba
py
sir
tor
viv
جدار
شعی
شخم
مارد
ممس
وله
##استان
##لگی
##چوان
##ty
##ثلی
درهنگام
استافیل
الزمان
سرگردانی
نامع
##واع
تنتن
ریست
پرداختیم
کیسی
تلاشش
جهتدار
امدهای
امورات
ورودش
پنکه
مولداوی
الماتی
بازدیدهای
بسترسازی
##وپسی
مغزهای
خلخالی
محاسن
چشمانی
تریلی
تریسی
پوریا
هارپر
الکتروشیمی
البرتا
انقضای
sha
دانشمندانی
هیپوت
کابینهای
راندند
ببندیم
مشتاقانه
علاءالدوله
اسکوير
نمیشناسند
ویراستاری
فلامینگو
ماکزیمم
بلاتکلیف
let
mach
اگار
حتا
فتن
وون
وامی
##جارهای
##go
انبیای
همشه
داوکینز
المی
اسنیک
اقماری
نواده
##نینی
بنیتا
تقبیح
همینگوی
اغام
برنامهنویسان
##وکشی
پاسداشت
شوشی
##ense
بنیانهای
لواز
۲۳۶
نمیکشد
چهرهاش
درگیریهایی
تپنده
سرمشق
باریکتر
کاپور
فتوسنتز
تکیهگاه
گزش
مارتنز
مبادلاتی
فورس
جنجالهای
پیاژه
تلسکوپهای
##ودینگر
فورتنایت
lib
rs
بشی
زمر
گیره
یادی
##لسی
##گینی
##شوش
##زبی
##oud
##حیم
##por
برانداز
##ومانی
فریدن
##برها
ویکس
ایون
گفتهایم
غیرهم
اهدایی
نیازهایی
توانید
پارالم
جانمایی
قدسی
##کلر
یونیسف
۲۴۷
##وپنج
شفافی
سنگینترین
تمرینها
ردیاب
زنگبار
فشردگی
نرسه
ونوس
میرساندند
شعبده
ساقههای
درایران
واگنر
ایرلاینها
نگذارند
نمیگویند
اغتشاشات
هوافضای
سمعک
داعشیها
دراکولا
nvidia
نژادپرستانه
کرگدن
اعوجاج
موزامبیک
afc
fd
gs
بضاعت
زون
عدیده
نبرید
هلیم
وساز
گوند
##فعه
بیام
بیولوژی
افکاری
##برابر
##شکافی
مقلد
مرع
مرزبندی
کمکتان
ماکان
رسایی
بازیاش
ماهیتی
دادهشده
##کرانی
خانمان
کتابچه
هیچچیز
عملهای
سویل
طبیعیت
صفین
شعبهای
رنگهایی
قرارداده
منطقە
تکرقمی
درسدن
کتف
فرزندانتان
نمیدهم
نیتریک
استعفاء
دوزهای
وبلاگن
پروانهها
دریانوردان
میاموزند
میورزند
نابینایی
وطنی
فراخورشیدی
##کنترل
وعدهای
حواریون
شوخطبعی
عضدالدوله
بلاعوض
bod
قراق
۶۲۰
##بلا
##oled
##ан
##صویر
##امح
باجه
بیوگرافی
دستبه
##رسانا
پایتان
پرزید
##متانه
سوگیری
ناگاه
طرفها
جوامعی
عملکردش
بندیکت
خدمتگزار
پیکسلی
##عملی
گذشتند
تاجیکی
روسف
مفیدتر
مالکوم
ادمربایی
برمیانگی
مریخی
کوچکترش
۹۳۰
صیغه
ابداعی
دیمیتری
جامدات
ایزدبانوی
رضاییان
online
علماء
اشامیدن
هجدهمین
میکرونزی
ویسکانسین
land
xl
خیاط
رانا
نینا
وینی
چاوز
##علیه
##gc
میسال
استدر
منیر
ایچ
پیشمر
بخیر
##گیرهای
پایا
موردتوجه
##وشیم
جنوا
سیاح
میدون
غیرعامل
کاهن
ایجادکننده
برگمان
سرمایشی
رایس
اپراتوری
کودتایی
اشترا
فراصوت
فیها
دوستت
امیدهای
پرسپ
موثرتری
کلافه
##ures
سربازانی
چپگرا
باردی
تکنیکهایی
ویلایی
شنیدیم
خیالپردازی
جعفریان
فردوسیپور
مناظرههای
press
جماعتی
ناامیدکننده
دلفینهای
مخروبه
فیتز
بقیع
پتروپارس
فمینیست
میورزید
ذنفون
سمیرم
صداپیشگی
بدشانسی
کفتار
امپدانس
ax
ara
bul
mall
طالع
نروند
کراک
##گد
##پوینت
##فانی
##ky
##craft
میوزد
باشن
اناست
یکجان
معاو
معبدی
##ناکا
نامرت
بینا
بیمهی
دلمه
##گردش
اکل
##کومان
مارهای
کاریابی
کاخی
ازموده
موفقیتهایی
مایاها
دانستههای
سپاهش
##گنس
اکتسابی
پردازشهای
##acy
دوستانهای
جلبکها
پیشینهای
##unter
هرکاری
نعوظ
انزال
شکرگزاری
قومیتی
قنبر
کاشفی
##گموند
عامر
چسبناک
فوریتی
غزلهای
همسایههای
نهادهاند
کربوهیدراتهای
بازیافتی
کوسهها
میورزد
موزیسین
هیستامین
ثلاث
mich
ونت
ولاس
چقر
۸۳۰
##روان
##قامت
درمع
##الملوک
##سیاه
یکروزه
دستمان
اشاراتی
سیه
##فیزیک
۲۰۲
سهگاه
##زدد
دلها
انگلا
کامبر
مارینا
پادک
ابرقدرت
۱۰۰۰۰۰
مالتی
شناسانه
پدیدهی
ماموت
خوردنی
گذاشتهایم
پیچهای
کارهایتان
پهنا
ناخنهای
گنابادی
چوبین
نعنا
اندیشهای
اندیشید
فاوا
صحنهی
درخشنده
دکستر
کوبریک
بهمراتب
پاهایتان
اتکاء
مینشینید
مانیتورهای
برانگیختگی
برگردانید
زاکربرگ
paul
چشمنواز
میپوشانند
رینولدز
lng
ros
بشت
نتها
ونگ
۳هزار
##بیم
##yc
##mo
بهشکلی
##ورر
برهنگی
امدید
معراج
قراره
دستفروشان
گرج
ابدیت
##اکسی
تصنی
اطرافت
##بالت
مراوده
میلهای
اموزه
شرودینگر
فارست
چونگ
جاجیم
مینگرد
عرضهکنندگان
##وزیه
یونیک
بلندمرت
##ese
##بازده
##isi
بابلسر
ناخشن
کلاوس
پالاس
روسا
نرمافزارهایی
##وایز
الفبایی
برمیگیرد
عبارتنداز
خطوطی
مظلو
کشیدگی
برونشیت
spec
۹۹۹
۱۲۹۴
پیکسلهای
بپرسند
استیلای
کیانوش
ثامنالح
media
##اقتصادی
تفرجگاه
پولیتزر
پرزیدنت
fri
ذبیح
عزای
فص
هذا
##اچه
##ool
##ling
##صفهان
میگری
میران
رونده
خودمانی
کارنامهاش
معقولی
کشورهاست
عمامه
ساختم
زمینگیر
اغوز
خریدها
رقب
اپاد
پلدختر
ورزشگاهها
مشابهت
اهدافش
کمیسیونها
معلولی
انحنای
سربازانش
سیروان
کمبودها
پورتر
نمیدهید
صدرالدین
استحاله
پرفشار
مجسمهساز
چسبنده
شکنجههای
بوتههای
معصومی
زحمتکش
لکهها
جولیان
فحاشی
اسکایپ
برازجان
گیاهخواران
ترابردپذیری
درماندگی
همشهریان
cell
mart
خزان
نن
٢٣
##گستر
##hs
استماع
امول
##ازردی
##ازپین
اوتو
الخصوص
نمد
##وتخت
اعصار
سازوکاری
زیرکی
اسلامشهر
اهلبیت
نايینی
سنقر
سینت
قلمی
##ars
فضایل
دریچهای
خردشده
تکنوازی
متفاوتتر
ترسها
ترساندن
زمرد
سندرز
توزیعهای
شغلتان
مرغهای
لاوان
خواصی
مخلوقات
نتوانستهایم
الهدی
express
موریسون
میچرخند
میخوابند
چاووش
طومار
طهارت
مارمولک
dubai
اسپاتیفای
restaurant
lan
tm
west
جوندگان
لاف
##کاه
##گاهای
##جقه
##ping
##۴۲
میمند
میپرد
##رافرین
البی
الحساب
دوطرف
##فرود
بدروم
پیپ
##استریت
اپریل
عرضهای
اموزشگاههای
رودهها
دریابند
بنیادهای
##چیها
۲۳۷
اسکورت
کفاف
جغد
نیازمندیم
فریبا
امینم
تجربیاتی
ابهت
وایس
درخشانترین
هیلبرت
۹۷۰
cons
سیکلت
force
تفنگهای
فلاون
box
##یدوستی
الاحمد
جلیقه
ارجحیت
هگمتانه
هیپوفیز
غیرارادی
انتفاضه
mor
sum
vl
your
حرا
داند
ذراتی
لگو
ووی
##شری
##قبل
درگاههای
درگز
انشان
##هاک
##وناس
##دهاند
تاو
میشوی
##اسف
##ومنت
المهدی
مجزای
زیپ
پرید
سوک
ورنر
شکلاتی
اورامان
صنعتگر
خانهشان
نفسی
زنهای
بیرحم
امدهام
فلین
هشتگرد
درونشهری
گوشها
رادیوگرافی
مورچهها
[...]
